<unk>	0
<s>	0
</s>	0
ar	-0
▁b	-1
er	-2
in	-3
an	-4
▁k	-5
en	-6
ın	-7
ir	-8
▁d	-9
▁g	-10
▁s	-11
ak	-12
al	-13
di	-14
or	-15
▁y	-16
..	-17
lar	-18
ler	-19
▁h	-20
▁bir	-21
ay	-22
et	-23
yor	-24
dı	-25
▁m	-26
▁i	-27
du	-28
ek	-29
at	-30
▁t	-31
▁o	-32
▁B	-33
le	-34
▁—	-35
un	-36
am	-37
im	-38
el	-39
ah	-40
ün	-41
ey	-42
as	-43
▁v	-44
ır	-45
aş	-46
iy	-47
es	-48
ad	-49
ur	-50
em	-51
▁ç	-52
ık	-53
az	-54
iz	-55
il	-56
de	-57
ım	-58
...	-59
▁A	-60
yordu	-61
la	-62
▁n	-63
ız	-64
ağ	-65
ab	-66
▁e	-67
▁K	-68
ti	-69
▁H	-70
▁de	-71
▁gö	-72
den	-73
tı	-74
ap	-75
da	-76
ini	-77
▁S	-78
ış	-79
▁ş	-80
ür	-81
▁bu	-82
ını	-83
lı	-84
dan	-85
▁ol	-86
iş	-87
▁gi	-88
ine	-89
▁D	-90
▁p	-91
li	-92
ce	-93
um	-94
st	-95
ük	-96
on	-97
üz	-98
▁iç	-99
ıl	-100
ac	-101
bi	-102
ına	-103
av	-104
ok	-105
▁İ	-106
▁kal	-107
af	-108
▁z	-109
▁al	-110
▁M	-111
▁Y	-112
▁ö	-113
uz	-114
ik	-115
▁E	-116
uş	-117
edi	-118
ul	-119
▁T	-120
üm	-121
ki	-122
▁ve	-123
ları	-124
it	-125
ol	-126
▁baş	-127
▁gibi	-128
▁O	-129
leri	-130
ut	-131
▁kad	-132
▁et	-133
adı	-134
üş	-135
▁G	-136
▁için	-137
▁ge	-138
▁N	-139
aç	-140
iye	-141
▁ne	-142
öy	-143
ül	-144
ında	-145
▁gör	-146
▁f	-147
▁ar	-148
ev	-149
iç	-150
mış	-151
▁r	-152
▁"	-153
endi	-154
uy	-155
▁on	-156
arı	-157
uk	-158
aya	-159
eye	-160
is	-161
üt	-162
▁an	-163
üy	-164
ların	-165
▁gel	-166
▁bak	-167
▁kar	-168
▁kadar	-169
▁.	-170
==	-171
miş	-172
▁ben	-173
lerin	-174
ıy	-175
▁çık	-176
▁c	-177
dü	-178
te	-179
▁ver	-180
uh	-181
iyor	-182
▁Bu	-183
ıyor	-184
▁Bir	-185
me	-186
eş	-187
tu	-188
▁el	-189
▁F	-190
us	-191
ladı	-192
ra	-193
▁ay	-194
unu	-195
ıyordu	-196
▁in	-197
▁hay	-198
▁ko	-199
▁dedi	-200
oğ	-201
öyle	-202
▁da	-203
der	-204
▁at	-205
▁var	-206
iyordu	-207
aha	-208
▁P	-209
ıs	-210
lerini	-211
ep	-212
▁sen	-213
onra	-214
ği	-215
alar	-216
▁geç	-217
ken	-218
▁ev	-219
▁oldu	-220
▁Ben	-221
▁düş	-222
▁şey	-223
cek	-224
▁yap	-225
ere	-226
ının	-227
▁göz	-228
dır	-229
▁iş	-230
▁Ç	-231
muş	-232
ta	-233
tan	-234
ından	-235
ca	-236
eri	-237
ana	-238
▁kap	-239
▁gün	-240
ma	-241
mek	-242
larını	-243
bir	-244
dak	-245
lardı	-246
lan	-247
acak	-248
mak	-249
▁bo	-250
irdi	-251
ğı	-252
üyük	-253
arak	-254
lık	-255
sin	-256
ht	-257
▁Ş	-258
man	-259
ile	-260
sun	-261
▁ağ	-262
▁değ	-263
lam	-264
üç	-265
▁es	-266
▁par	-267
▁yok	-268
inde	-269
▁daha	-270
▁her	-271
ası	-272
iyle	-273
se	-274
ütün	-275
▁yan	-276
▁uz	-277
▁dö	-278
ih	-279
ürk	-280
▁Ne	-281
ip	-282
tur	-283
dir	-284
▁diye	-285
esi	-286
akat	-287
▁dur	-288
ğim	-289
▁ki	-290
▁içinde	-291
eh	-292
▁V	-293
▁hiç	-294
▁Ar	-295
cak	-296
▁Bey	-297
tık	-298
ten	-299
ayet	-300
▁aç	-301
uğ	-302
inin	-303
▁değil	-304
eli	-305
▁tek	-306
▁büyük	-307
vet	-308
▁ak	-309
sız	-310
▁kendi	-311
▁Türk	-312
tü	-313
ayan	-314
daki	-315
▁l	-316
uyor	-317
ya	-318
▁bil	-319
▁bey	-320
▁san	-321
inden	-322
ez	-323
ada	-324
enin	-325
htiy	-326
ırdı	-327
▁Hay	-328
▁hal	-329
▁ist	-330
▁etti	-331
uyordu	-332
ıp	-333
eki	-334
met	-335
eb	-336
uv	-337
imdi	-338
iyet	-339
▁as	-340
▁ad	-341
▁bul	-342
▁tar	-343
▁kur	-344
▁muh	-345
üyor	-346
ordu	-347
▁yüz	-348
▁sonra	-349
▁söyle	-350
▁R	-351
▁başladı	-352
ye	-353
üst	-354
▁öl	-355
▁Fakat	-356
adan	-357
▁ile	-358
üne	-359
▁uy	-360
öz	-361
maz	-362
▁to	-363
htiyar	-364
aman	-365
▁Al	-366
▁tut	-367
ayı	-368
asıl	-369
▁doğ	-370
▁edi	-371
▁yer	-372
▁git	-373
▁bütün	-374
alı	-375
▁sev	-376
if	-377
▁en	-378
id	-379
▁yak	-380
▁On	-381
▁ce	-382
▁olduğ	-383
lah	-384
siz	-385
▁kız	-386
mem	-387
rar	-388
▁hat	-389
▁der	-390
mez	-391
tım	-392
len	-393
tim	-394
maya	-395
si	-396
aln	-397
alnız	-398
ka	-399
▁düşün	-400
ru	-401
fendi	-402
anın	-403
üzel	-404
▁kalk	-405
lat	-406
▁alt	-407
▁hep	-408
erek	-409
madı	-410
ğini	-411
▁C	-412
üc	-413
medi	-414
meye	-415
▁ark	-416
enç	-417
▁gül	-418
lak	-419
▁bur	-420
▁yine	-421
▁iki	-422
lu	-423
▁vak	-424
▁ön	-425
üs	-426
una	-427
acağ	-428
anım	-429
▁kes	-430
oc	-431
▁kö	-432
▁adam	-433
deki	-434
üçük	-435
▁çıkar	-436
lik	-437
▁is	-438
lere	-439
▁çok	-440
▁Ö	-441
adi	-442
vel	-443
▁bile	-444
ınız	-445
▁sar	-446
▁hak	-447
tir	-448
yi	-449
▁har	-450
▁yaş	-451
ele	-452
emen	-453
▁kır	-454
▁eder	-455
▁idi	-456
▁sene	-457
imiz	-458
▁duy	-459
▁top	-460
▁otur	-461
▁Sonra	-462
det	-463
ırak	-464
▁kim	-465
▁Dedi	-466
lerine	-467
▁beyaz	-468
ci	-469
▁-	-470
acı	-471
ret	-472
lara	-473
▁biz	-474
▁güzel	-475
▁sık	-476
▁An	-477
▁karş	-478
▁üz	-479
ork	-480
san	-481
▁taraf	-482
ılı	-483
ğını	-484
ımız	-485
▁kan	-486
▁çek	-487
laş	-488
yle	-489
▁ok	-490
▁sa	-491
....	-492
sa	-493
çe	-494
avaş	-495
▁İst	-496
▁or	-497
ünü	-498
▁kon	-499
mişti	-500
▁bırak	-501
▁dön	-502
▁onu	-503
▁üst	-504
ân	-505
ağı	-506
asına	-507
▁vardı	-508
kin	-509
▁gir	-510
▁mah	-511
▁yol	-512
lü	-513
▁kab	-514
asını	-515
aber	-516
▁geldi	-517
▁nasıl	-518
ef	-519
▁mi	-520
▁ihtiyar	-521
▁Z	-522
▁aş	-523
alan	-524
için	-525
mıştı	-526
▁sordu	-527
âr	-528
iydi	-529
▁gece	-530
▁vakit	-531
▁verdi	-532
lâ	-533
erk	-534
let	-535
allı	-536
emek	-537
▁get	-538
▁ses	-539
▁çal	-540
▁olan	-541
din	-542
ıldı	-543
lacak	-544
ındaki	-545
be	-546
▁El	-547
▁yür	-548
of	-549
iyah	-550
ıyla	-551
▁evvel	-552
▁u	-553
tır	-554
▁İş	-555
ünde	-556
▁din	-557
▁Diye	-558
▁kadın	-559
aba	-560
▁koy	-561
▁yar	-562
▁yat	-563
▁küçük	-564
rt	-565
udu	-566
▁kork	-567
mi	-568
han	-569
lay	-570
▁pek	-571
asında	-572
cı	-573
▁mı	-574
▁onun	-575
larına	-576
müş	-577
raf	-578
▁tekrar	-579
===	-580
eyi	-581
▁==	-582
aları	-583
▁=====	-584
▁görün	-585
▁bah	-586
▁baktı	-587
ahat	-588
kı	-589
▁U	-590
▁hâ	-591
bul	-592
uman	-593
▁bağ	-594
▁dal	-595
▁ken	-596
ağa	-597
▁bana	-598
tik	-599
▁başka	-600
ker	-601
▁mü	-602
▁dik	-603
▁ser	-604
▁sür	-605
▁Evet	-606
▁genç	-607
mam	-608
▁Ali	-609
esini	-610
!"	-611
▁dol	-612
▁çoc	-613
▁beni	-614
ça	-615
ade	-616
dür	-617
amaz	-618
▁siz	-619
▁ziy	-620
▁üzer	-621
▁İşte	-622
larının	-623
aret	-624
▁mu	-625
▁doğru	-626
▁birden	-627
▁Sen	-628
▁boy	-629
▁kaç	-630
▁aldı	-631
üyordu	-632
imi	-633
may	-634
eyen	-635
ıştı	-636
▁sak	-637
▁şimdi	-638
▁â	-639
nem	-640
▁tak	-641
▁hatır	-642
ımı	-643
abah	-644
▁saat	-645
▁Hayır	-646
▁siyah	-647
oş	-648
▁Ama	-649
▁kol	-650
oy	-651
vap	-652
şah	-653
▁sal	-654
▁ter	-655
▁yavaş	-656
bet	-657
sın	-658
▁sır	-659
▁Ah	-660
▁müt	-661
▁olduğunu	-662
ece	-663
adım	-664
▁bek	-665
eng	-666
unun	-667
▁Kar	-668
▁tah	-669
eket	-670
▁hav	-671
▁mer	-672
▁mil	-673
▁taş	-674
▁konuş	-675
▁od	-676
▁kay	-677
▁söy	-678
anbul	-679
adişah	-680
▁zaman	-681
enc	-682
lığ	-683
▁ah	-684
▁İn	-685
ızı	-686
ecek	-687
▁Kal	-688
▁böyle	-689
▁İstanbul	-690
ec	-691
▁ber	-692
▁kat	-693
▁benim	-694
lerinin	-695
▁yalnız	-696
ama	-697
aşa	-698
▁az	-699
▁man	-700
▁yoktu	-701
üp	-702
gar	-703
yla	-704
▁üç	-705
▁mut	-706
âh	-707
anı	-708
ayr	-709
eni	-710
▁em	-711
▁dev	-712
▁köy	-713
ihayet	-714
▁efendi	-715
▁Göz	-716
▁kah	-717
▁yaz	-718
▁hemen	-719
alık	-720
▁anlat	-721
iniz	-722
▁ede	-723
▁eski	-724
▁hayal	-725
▁kaldır	-726
ib	-727
ire	-728
▁getir	-729
sini	-730
▁biraz	-731
asından	-732
leriyle	-733
çi	-734
üdü	-735
▁Biz	-736
▁boz	-737
ışarı	-738
avallı	-739
▁Şimdi	-740
ne	-741
dim	-742
dım	-743
ınca	-744
▁Her	-745
▁tes	-746
dar	-747
ley	-748
▁beş	-749
▁L	-750
dur	-751
tür	-752
▁eğ	-753
ikat	-754
▁nef	-755
lerle	-756
▁gayet	-757
▁sanki	-758
ag	-759
▁haf	-760
▁tab	-761
▁göst	-762
▁isti	-763
ayım	-764
bire	-765
ince	-766
▁işte	-767
ed	-768
alım	-769
▁mem	-770
▁işit	-771
▁hiçbir	-772
ic	-773
▁bab	-774
▁ona	-775
▁saç	-776
lardan	-777
▁Allah	-778
▁asker	-779
▁bel	-780
uvvet	-781
▁ediyor	-782
bu	-783
ör	-784
▁uğ	-785
▁Baş	-786
▁lir	-787
▁son	-788
▁öyle	-789
▁beraber	-790
duğ	-791
kat	-792
ran	-793
▁bin	-794
▁gön	-795
▁has	-796
▁koş	-797
memiş	-798
▁hayk	-799
▁uzun	-800
elik	-801
▁mas	-802
▁göster	-803
▁ruh	-804
▁sok	-805
▁yük	-806
lerinden	-807
tar	-808
▁il	-809
adaş	-810
tığı	-811
▁kaf	-812
▁çar	-813
irler	-814
▁Artık	-815
▁cevap	-816
umandan	-817
cağ	-818
iddet	-819
▁olur	-820
▁gitti	-821
▁kuvvet	-822
düm	-823
gın	-824
nin	-825
nın	-826
▁ku	-827
ardı	-828
▁Hiç	-829
▁ayr	-830
▁can	-831
muştu	-832
▁geçti	-833
üf	-834
!..	-835
azı	-836
▁Ağ	-837
▁Hal	-838
▁olm	-839
▁şaş	-840
esine	-841
miyor	-842
▁benz	-843
▁hayat	-844
▁ediyordu	-845
ili	-846
lıyor	-847
▁uzak	-848
larından	-849
▁Ü	-850
ime	-851
▁sı	-852
▁per	-853
▁sah	-854
amadı	-855
lerden	-856
▁sabah	-857
ıma	-858
ildi	-859
unda	-860
▁Bor	-861
▁kaz	-862
▁çocuk	-863
▁su	-864
▁acı	-865
▁yere	-866
eç	-867
▁🙝	-868
iri	-869
▁🙝🙟	-870
▁söz	-871
anlık	-872
▁ağır	-873
▁karşıs	-874
▁olacak	-875
▁gözlerini	-876
▁«	-877
▁şu	-878
amam	-879
▁dok	-880
▁vüc	-881
larla	-882
asının	-883
ön	-884
ıst	-885
▁nam	-886
▁vur	-887
▁derin	-888
▁çalış	-889
▁Efendi	-890
▁Yalnız	-891
▁gönder	-892
des	-893
sek	-894
▁er	-895
▁un	-896
laka	-897
▁mes	-898
emedi	-899
▁Boris	-900
▁girdi	-901
▁gördü	-902
▁götür	-903
re	-904
ren	-905
▁gür	-906
▁kul	-907
▁dışarı	-908
fa	-909
van	-910
▁İs	-911
ılmış	-912
larıyla	-913
▁Ev	-914
▁Or	-915
mızı	-916
▁mek	-917
▁altında	-918
?..	-919
lim	-920
▁öğ	-921
agda	-922
▁Kap	-923
▁haz	-924
▁İki	-925
meden	-926
▁ayak	-927
▁dere	-928
▁penc	-929
▁Magda	-930
▁birbir	-931
▁diyordu	-932
▁birdenbire	-933
kü	-934
dik	-935
dum	-936
dın	-937
gün	-938
itr	-939
oca	-940
eniz	-941
uvar	-942
▁Has	-943
madan	-944
▁....	-945
▁Niçin	-946
▁diyor	-947
▁istedi	-948
▁yanına	-949
ıyorlardı	-950
eğ	-951
arıs	-952
▁Bil	-953
▁dem	-954
▁iyi	-955
▁tat	-956
▁unut	-957
acağım	-958
▁rahat	-959
cüm	-960
şam	-961
▁Bur	-962
▁göl	-963
▁tem	-964
▁gidi	-965
▁kend	-966
▁Haydi	-967
▁çıktı	-968
adr	-969
▁Ay	-970
▁ed	-971
▁mis	-972
allah	-973
ceğim	-974
▁Daha	-975
▁Yine	-976
▁artık	-977
▁kapıs	-978
▁yaklaş	-979
▁İhtiyar	-980
dık	-981
mer	-982
ğım	-983
▁öp	-984
▁İç	-985
arip	-986
▁köp	-987
izmet	-988
lerde	-989
▁“	-990
ara	-991
muz	-992
▁Ef	-993
▁eş	-994
▁oğ	-995
eden	-996
▁...	-997
▁Dur	-998
▁Hep	-999
▁dün	-1000
▁mey	-1001
▁tep	-1002
▁Kendi	-1003
▁halde	-1004
▁kumandan	-1005
ver	-1006
▁bun	-1007
lerdi	-1008
▁ateş	-1009
▁bulun	-1010
▁insan	-1011
kaç	-1012
▁Siz	-1013
eleri	-1014
▁Paşa	-1015
▁hatta	-1016
▁başına	-1017
bil	-1018
tın	-1019
▁ot	-1020
ledi	-1021
▁boş	-1022
▁büy	-1023
▁dar	-1024
▁hem	-1025
▁kiş	-1026
▁koc	-1027
▁tan	-1028
▁dedim	-1029
▁önüne	-1030
▁gözleri	-1031
▁hakikat	-1032
up	-1033
adır	-1034
▁fır	-1035
▁köş	-1036
▁mün	-1037
▁sil	-1038
▁sor	-1039
▁yağ	-1040
▁çev	-1041
▁uyan	-1042
▁karış	-1043
▁niçin	-1044
▁başını	-1045
▁zavallı	-1046
luk	-1047
▁ya	-1048
▁ıs	-1049
usun	-1050
▁aşk	-1051
▁gaz	-1052
▁kıy	-1053
▁yem	-1054
▁gölg	-1055
▁Hanım	-1056
lıyordu	-1057
▁arkadaş	-1058
▁karanlık	-1059
avi	-1060
erin	-1061
irmi	-1062
▁Kur	-1063
▁Yar	-1064
▁fen	-1065
▁dört	-1066
▁kapı	-1067
▁ordu	-1068
▁Büyük	-1069
▁hareket	-1070
gun	-1071
liğ	-1072
▁Kız	-1073
▁uğr	-1074
sunuz	-1075
tılar	-1076
▁öldür	-1077
lerinde	-1078
▁yürüdü	-1079
ri	-1080
ayn	-1081
ika	-1082
lem	-1083
tuğ	-1084
üms	-1085
ünün	-1086
▁ces	-1087
▁gez	-1088
▁meş	-1089
▁tav	-1090
ıstık	-1091
▁sarı	-1092
▁titr	-1093
▁padişah	-1094
▁a	-1095
▁Ak	-1096
▁la	-1097
larda	-1098
▁anlam	-1099
▁döndü	-1100
▁söyledi	-1101
oz	-1102
leş	-1103
adet	-1104
▁Nac	-1105
▁Rum	-1106
▁bas	-1107
▁bit	-1108
▁diz	-1109
▁kav	-1110
▁kit	-1111
▁muk	-1112
▁yık	-1113
cekti	-1114
erkes	-1115
▁inan	-1116
▁Naciye	-1117
▁nihayet	-1118
▁arasında	-1119
âs	-1120
nun	-1121
suz	-1122
âbi	-1123
▁Ac	-1124
▁du	-1125
▁uç	-1126
uldu	-1127
▁San	-1128
▁Tek	-1129
▁his	-1130
▁bayr	-1131
▁eden	-1132
▁Bütün	-1133
▁etraf	-1134
▁Mıstık	-1135
ây	-1136
ede	-1137
▁ac	-1138
▁ez	-1139
▁oy	-1140
ıydı	-1141
layan	-1142
▁kılı	-1143
▁yeni	-1144
▁haykırdı	-1145
ğer	-1146
eniş	-1147
ılan	-1148
▁Muh	-1149
▁çağ	-1150
▁sana	-1151
▁bizim	-1152
▁durdu	-1153
▁etmek	-1154
▁ister	-1155
▁namus	-1156
▁hizmet	-1157
▁millet	-1158
tak	-1159
▁Ve	-1160
aban	-1161
eler	-1162
slan	-1163
▁Ark	-1164
▁yor	-1165
meyen	-1166
▁Sadr	-1167
▁beri	-1168
▁lira	-1169
▁istem	-1170
▁dikkat	-1171
▁olmadı	-1172
▁kırmızı	-1173
▁mutlaka	-1174
▁üzerine	-1175
kan	-1176
üph	-1177
ıyı	-1178
apaz	-1179
buki	-1180
elim	-1181
eyim	-1182
lığı	-1183
▁Gül	-1184
▁Ser	-1185
▁ağz	-1186
▁giy	-1187
▁ölüm	-1188
▁Hasan	-1189
▁gelen	-1190
▁senin	-1191
▁tatlı	-1192
▁düşman	-1193
▁ziyade	-1194
kün	-1195
kır	-1196
▁ek	-1197
▁Meh	-1198
▁iht	-1199
▁iri	-1200
▁tür	-1201
▁şeh	-1202
▁Benim	-1203
▁karşı	-1204
▁derece	-1205
▁değildi	-1206
ala	-1207
net	-1208
▁Av	-1209
alet	-1210
ayıf	-1211
ıpkı	-1212
▁erk	-1213
▁naz	-1214
▁rüy	-1215
▁sat	-1216
▁yet	-1217
engin	-1218
▁herk	-1219
▁Biraz	-1220
▁gürül	-1221
▁yemek	-1222
▁birkaç	-1223
os	-1224
üd	-1225
ıç	-1226
ass	-1227
isi	-1228
kın	-1229
▁Uz	-1230
!...	-1231
eyec	-1232
eşil	-1233
ımın	-1234
▁Doğ	-1235
▁Hat	-1236
▁ama	-1237
▁kıs	-1238
▁sef	-1239
▁sip	-1240
▁zev	-1241
▁hâlâ	-1242
esinin	-1243
▁annem	-1244
▁olsun	-1245
▁bakıyordu	-1246
om	-1247
rak	-1248
unç	-1249
ıya	-1250
dığı	-1251
esiz	-1252
sine	-1253
▁Bar	-1254
▁Düş	-1255
▁Kim	-1256
▁yal	-1257
▁ayrı	-1258
▁açık	-1259
▁kahr	-1260
▁tabi	-1261
ıyorum	-1262
▁eğlen	-1263
?"	-1264
ang	-1265
ess	-1266
▁av	-1267
▁Pek	-1268
▁kaş	-1269
▁rüz	-1270
müştü	-1271
ünden	-1272
▁Nasıl	-1273
▁altın	-1274
▁heyec	-1275
▁içine	-1276
▁gülüms	-1277
▁vücudu	-1278
▁Halbuki	-1279
âz	-1280
gil	-1281
..."	-1282
oğuk	-1283
âbit	-1284
▁kuş	-1285
▁sön	-1286
▁Gece	-1287
▁bunu	-1288
▁Öyle	-1289
acaktı	-1290
▁Alman	-1291
▁akşam	-1292
▁bulam	-1293
▁kalktı	-1294
▁olduğu	-1295
▁yüksek	-1296
▁efendim	-1297
ban	-1298
uğu	-1299
▁Kö	-1300
▁To	-1301
▁gü	-1302
duğu	-1303
idar	-1304
▁sük	-1305
▁ten	-1306
lerce	-1307
siniz	-1308
▁Onun	-1309
▁olun	-1310
esinde	-1311
▁elini	-1312
▁ettim	-1313
▁gider	-1314
▁haber	-1315
▁karar	-1316
▁kenar	-1317
▁burada	-1318
▁meydan	-1319
▁Padişah	-1320
âm	-1321
ğü	-1322
ıv	-1323
ist	-1324
ral	-1325
ter	-1326
▁Su	-1327
▁üm	-1328
▁Sab	-1329
▁Yan	-1330
▁dav	-1331
▁sol	-1332
sınız	-1333
▁ağaç	-1334
▁defa	-1335
▁çarp	-1336
▁Hemen	-1337
▁hazır	-1338
▁sevin	-1339
▁Arslan	-1340
▁gürültü	-1341
▁üstünde	-1342
▁kahraman	-1343
▁karşısında	-1344
▁–	-1345
ark	-1346
duk	-1347
▁iz	-1348
▁le	-1349
adın	-1350
azım	-1351
esin	-1352
ıklı	-1353
▁Bun	-1354
lerim	-1355
sinin	-1356
▁düny	-1357
▁mavi	-1358
▁duran	-1359
▁kabul	-1360
▁muhar	-1361
▁yeşil	-1362
iyordum	-1363
larında	-1364
▁Durmuş	-1365
▁üstüne	-1366
deş	-1367
emm	-1368
mur	-1369
çok	-1370
imal	-1371
uhaf	-1372
▁dağ	-1373
▁fik	-1374
▁göğ	-1375
▁hük	-1376
▁ilk	-1377
▁kas	-1378
▁laf	-1379
▁Genç	-1380
▁Kadı	-1381
▁ince	-1382
▁Bidar	-1383
▁demek	-1384
▁geçir	-1385
▁kaldı	-1386
▁kalın	-1387
▁kazan	-1388
▁zayıf	-1389
▁Nihayet	-1390
▁düşündü	-1391
▁istiyor	-1392
atı	-1393
eth	-1394
sen	-1395
tum	-1396
▁Aç	-1397
▁Ya	-1398
▁ha	-1399
▁ik	-1400
diği	-1401
izli	-1402
▁Onu	-1403
▁dam	-1404
▁kop	-1405
▁sey	-1406
larak	-1407
▁Deli	-1408
▁aydın	-1409
▁dayan	-1410
▁devam	-1411
▁değiş	-1412
▁erkek	-1413
▁yaban	-1414
▁çekti	-1415
▁pencer	-1416
azi	-1417
ima	-1418
lüm	-1419
ser	-1420
emez	-1421
▁Gel	-1422
▁Hak	-1423
▁fil	-1424
▁oyn	-1425
leket	-1426
ırlar	-1427
▁hanım	-1428
▁hepsi	-1429
▁namaz	-1430
▁tamam	-1431
▁tıpkı	-1432
▁yirmi	-1433
▁parlak	-1434
▁tercüm	-1435
▁önünde	-1436
amıyordu	-1437
▁çıkardı	-1438
ha	-1439
iv	-1440
ığ	-1441
▁im	-1442
elam	-1443
▁Hem	-1444
▁hız	-1445
▁nar	-1446
▁vaz	-1447
▁Çok	-1448
erede	-1449
▁adım	-1450
▁gelir	-1451
▁kimse	-1452
▁Birden	-1453
▁zengin	-1454
▁getirdi	-1455
▁heyecan	-1456
▁korkunç	-1457
▁memleket	-1458
."	-1459
bol	-1460
set	-1461
usu	-1462
▁At	-1463
amay	-1464
▁Yüz	-1465
▁don	-1466
landı	-1467
▁kims	-1468
▁kurt	-1469
▁şeyi	-1470
aların	-1471
▁geçen	-1472
▁kitap	-1473
▁merak	-1474
▁musun	-1475
memişti	-1476
▁kardeş	-1477
▁yanında	-1478
uyorlardı	-1479
cu	-1480
yı	-1481
öv	-1482
aff	-1483
lum	-1484
tuk	-1485
umu	-1486
amın	-1487
eydi	-1488
▁day	-1489
lerek	-1490
ukarı	-1491
ğimiz	-1492
▁bize	-1493
▁uzat	-1494
▁şüph	-1495
lanmış	-1496
▁Küçük	-1497
▁bugün	-1498
▁koydu	-1499
▁mesut	-1500
ök	-1501
ğe	-1502
ceğ	-1503
dük	-1504
lük	-1505
▁..	-1506
▁Ey	-1507
işan	-1508
▁dak	-1509
▁diş	-1510
▁hey	-1511
▁hır	-1512
▁arab	-1513
▁açtı	-1514
▁geri	-1515
▁gide	-1516
▁seni	-1517
allahi	-1518
▁Sanki	-1519
▁bağır	-1520
▁içeri	-1521
▁yalan	-1522
larımız	-1523
▁birçok	-1524
▁söyley	-1525
▁yoktur	-1526
▁görünce	-1527
▁kaldırdı	-1528
▁duruyordu	-1529
ot	-1530
ekk	-1531
kâr	-1532
ola	-1533
rup	-1534
▁Es	-1535
iyat	-1536
▁Gör	-1537
▁akl	-1538
▁müs	-1539
▁say	-1540
▁sus	-1541
addes	-1542
arken	-1543
ladım	-1544
▁Acaba	-1545
▁Annem	-1546
▁Söyle	-1547
▁garip	-1548
▁geniş	-1549
▁hafif	-1550
▁zâbit	-1551
lerimiz	-1552
▁kıymet	-1553
nı	-1554
abı	-1555
apt	-1556
bur	-1557
işt	-1558
lif	-1559
âde	-1560
amış	-1561
asın	-1562
▁Bab	-1563
▁Hüs	-1564
▁Mah	-1565
▁Ter	-1566
▁hik	-1567
▁kok	-1568
▁sof	-1569
▁yum	-1570
diniz	-1571
ulmuş	-1572
▁doğr	-1573
▁uzan	-1574
lerimi	-1575
▁dolaş	-1576
▁duvar	-1577
▁etmiş	-1578
▁soğuk	-1579
▁Sabire	-1580
▁Tekrar	-1581
▁eliyle	-1582
▁hayvan	-1583
▁saadet	-1584
na	-1585
art	-1586
ebe	-1587
enk	-1588
şet	-1589
▁As	-1590
▁if	-1591
ağın	-1592
eyle	-1593
ücum	-1594
ünkü	-1595
▁Bak	-1596
▁mev	-1597
▁müm	-1598
▁ras	-1599
▁yav	-1600
mayan	-1601
▁bahç	-1602
▁esir	-1603
eyerek	-1604
▁Avrup	-1605
▁Hatta	-1606
▁filan	-1607
▁gizli	-1608
▁hafta	-1609
▁kuruş	-1610
▁kılıç	-1611
▁mekte	-1612
▁olmuş	-1613
▁yerde	-1614
alarını	-1615
▁ederim	-1616
▁bakıyor	-1617
▁senedir	-1618
iyorlardı	-1619
âb	-1620
düz	-1621
yon	-1622
üme	-1623
ırt	-1624
▁ab	-1625
▁uf	-1626
abuk	-1627
angi	-1628
asız	-1629
ğimi	-1630
▁Yür	-1631
▁fer	-1632
dirdi	-1633
urken	-1634
▁deli	-1635
akları	-1636
iştayn	-1637
lamaya	-1638
▁.....	-1639
▁Efser	-1640
▁birer	-1641
▁dudak	-1642
▁fakat	-1643
▁hüküm	-1644
▁olmaz	-1645
▁türlü	-1646
▁İngil	-1647
▁Muhsin	-1648
▁herkes	-1649
▁kurtar	-1650
▁tarafa	-1651
▁gidiyor	-1652
▁yabancı	-1653
▁oluyordu	-1654
▁Sadriştayn	-1655
nu	-1656
aat	-1657
div	-1658
hiş	-1659
iba	-1660
sel	-1661
yan	-1662
ğin	-1663
ahut	-1664
ceye	-1665
umuz	-1666
▁Hav	-1667
▁cam	-1668
▁faz	-1669
▁gal	-1670
▁sağ	-1671
▁sin	-1672
▁tor	-1673
ilmiş	-1674
lecek	-1675
ırken	-1676
▁Bana	-1677
▁Beni	-1678
▁Hoca	-1679
▁omuz	-1680
ereden	-1681
▁Yavaş	-1682
▁aşağı	-1683
▁deniz	-1684
▁karıs	-1685
▁münas	-1686
▁sıcak	-1687
▁temiz	-1688
▁Sermet	-1689
▁teklif	-1690
asındaki	-1691
▁Türkler	-1692
▁bakarak	-1693
▁kalenin	-1694
▁kapıdan	-1695
▁üzerinde	-1696
ub	-1697
ayy	-1698
ene	-1699
erv	-1700
ete	-1701
rik	-1702
tin	-1703
tor	-1704
▁En	-1705
▁be	-1706
▁pr	-1707
arım	-1708
azam	-1709
imde	-1710
▁Ham	-1711
▁Ken	-1712
▁Mer	-1713
▁mec	-1714
▁ort	-1715
▁süz	-1716
▁tır	-1717
▁şiş	-1718
arlar	-1719
irkin	-1720
larım	-1721
lendi	-1722
liyor	-1723
lüyor	-1724
▁dair	-1725
▁para	-1726
▁güneş	-1727
▁hücum	-1728
▁kalan	-1729
▁silah	-1730
esinden	-1731
▁edecek	-1732
▁hiddet	-1733
▁teslim	-1734
▁gelince	-1735
ane	-1736
emi	-1737
eği	-1738
min	-1739
rum	-1740
aten	-1741
ilen	-1742
▁Cev	-1743
▁Par	-1744
▁kum	-1745
▁kül	-1746
▁neş	-1747
▁saf	-1748
▁teh	-1749
mamış	-1750
▁Karş	-1751
▁attı	-1752
▁dalg	-1753
▁fena	-1754
▁kalb	-1755
▁parç	-1756
▁yedi	-1757
▁güldü	-1758
▁mektu	-1759
layarak	-1760
▁Barhan	-1761
▁Herkes	-1762
▁müthiş	-1763
▁ihtimal	-1764
▁kendini	-1765
▁İngiliz	-1766
▁,	-1767
ift	-1768
olu	-1769
rab	-1770
tti	-1771
▁ip	-1772
▁Üç	-1773
abil	-1774
ebet	-1775
igar	-1776
urdu	-1777
âkin	-1778
▁Ağa	-1779
▁Kon	-1780
▁Kır	-1781
▁Yat	-1782
▁arz	-1783
▁bal	-1784
▁işi	-1785
▁kıv	-1786
▁min	-1787
▁mân	-1788
▁çiç	-1789
erken	-1790
iyeti	-1791
▁Elma	-1792
▁Kuru	-1793
iyorum	-1794
ılacak	-1795
▁tuhaf	-1796
▁Çünkü	-1797
mayacak	-1798
miyordu	-1799
▁buraya	-1800
▁haykır	-1801
▁kaybol	-1802
▁yukarı	-1803
▁mukaddes	-1804
mr	-1805
aki	-1806
aşı	-1807
dün	-1808
▁eh	-1809
amız	-1810
apur	-1811
ümüş	-1812
ıntı	-1813
▁Bel	-1814
▁Res	-1815
▁gib	-1816
▁hoş	-1817
▁mez	-1818
▁ola	-1819
▁paş	-1820
▁sab	-1821
▁sap	-1822
▁sek	-1823
▁şek	-1824
aktan	-1825
elebi	-1826
▁Kalk	-1827
acağız	-1828
asıyla	-1829
ündeki	-1830
▁Papaz	-1831
▁Sabah	-1832
▁dokun	-1833
▁oğlum	-1834
▁gördüm	-1835
▁nerede	-1836
▁yüzüne	-1837
emiyordu	-1838
▁Zavallı	-1839
▁hepsini	-1840
▁kendine	-1841
▁arkasına	-1842
▁söylüyor	-1843
od	-1844
sı	-1845
ve	-1846
ahi	-1847
gel	-1848
ham	-1849
▁Ot	-1850
▁şi	-1851
alye	-1852
deta	-1853
enüz	-1854
erif	-1855
liği	-1856
unuz	-1857
uydu	-1858
ımıl	-1859
▁Bul	-1860
▁Kol	-1861
▁boğ	-1862
▁bıy	-1863
▁gec	-1864
▁kir	-1865
▁men	-1866
▁ner	-1867
▁sis	-1868
▁tel	-1869
▁uyk	-1870
▁çat	-1871
imden	-1872
manlı	-1873
uğunu	-1874
▁altı	-1875
▁elli	-1876
▁sükû	-1877
▁ümit	-1878
indeki	-1879
▁Evvel	-1880
▁Hepsi	-1881
▁daima	-1882
▁duman	-1883
▁tuttu	-1884
▁yarım	-1885
▁yetiş	-1886
acağını	-1887
liyordu	-1888
mamıştı	-1889
▁ederek	-1890
▁olarak	-1891
▁sordum	-1892
▁yağmur	-1893
▁salladı	-1894
▁münasebet	-1895
ke	-1896
çı	-1897
abi	-1898
akk	-1899
bek	-1900
bür	-1901
dat	-1902
▁Er	-1903
▁ta	-1904
aydı	-1905
açof	-1906
embe	-1907
lığa	-1908
▁Fon	-1909
▁dük	-1910
▁fel	-1911
▁tam	-1912
ethüd	-1913
medim	-1914
ılmaz	-1915
ıçkır	-1916
▁Koca	-1917
▁Suat	-1918
▁asla	-1919
▁gayr	-1920
▁göğs	-1921
▁Raçof	-1922
▁Resan	-1923
▁belki	-1924
▁lazım	-1925
▁olmak	-1926
▁selam	-1927
▁çıkan	-1928
▁İslam	-1929
▁yorgun	-1930
▁çirkin	-1931
▁şiddet	-1932
▁gibiydi	-1933
▁kendimi	-1934
▁yaşında	-1935
▁gülümsedi	-1936
ig	-1937
ost	-1938
süz	-1939
uma	-1940
ırh	-1941
▁Et	-1942
▁ib	-1943
dune	-1944
teki	-1945
▁Dün	-1946
▁Mes	-1947
▁Müs	-1948
▁bar	-1949
▁ceh	-1950
▁düz	-1951
▁kam	-1952
▁ker	-1953
▁mar	-1954
▁sam	-1955
undan	-1956
▁aile	-1957
▁hedi	-1958
▁uyuy	-1959
lıktan	-1960
mesini	-1961
smanlı	-1962
ılıyor	-1963
▁ancak	-1964
▁bilir	-1965
▁ileri	-1966
▁köpek	-1967
▁sizin	-1968
▁çadır	-1969
mıyordu	-1970
▁dakika	-1971
▁dalgın	-1972
▁kalkan	-1973
▁mümkün	-1974
▁parmak	-1975
▁söyler	-1976
▁başında	-1977
ud	-1978
▁́	-1979
air	-1980
lâk	-1981
âlâ	-1982
▁di	-1983
▁li	-1984
malı	-1985
urat	-1986
ılır	-1987
▁Son	-1988
▁Tam	-1989
▁cin	-1990
▁def	-1991
▁deh	-1992
▁ger	-1993
▁şah	-1994
ağını	-1995
ciğim	-1996
lanan	-1997
▁hast	-1998
▁müst	-1999
▁otuz	-2000
▁size	-2001
▁zırh	-2002
emiyor	-2003
mekten	-2004
▁Bizim	-2005
▁Böyle	-2006
▁Tosun	-2007
▁ayağa	-2008
▁esmer	-2009
▁hasta	-2010
▁kımıl	-2011
▁nazar	-2012
▁yakın	-2013
▁yaptı	-2014
▁Müslüm	-2015
▁ettiği	-2016
▁kurtul	-2017
▁ziyâde	-2018
▁Hamdune	-2019
▁anlattı	-2020
▁olmayan	-2021
▁sakallı	-2022
▁Gözlerini	-2023
uç	-2024
üğ	-2025
hur	-2026
sem	-2027
ırp	-2028
▁ma	-2029
adem	-2030
akta	-2031
alih	-2032
eder	-2033
ımda	-2034
ırım	-2035
▁Bah	-2036
▁Can	-2037
▁den	-2038
▁dib	-2039
▁dil	-2040
▁kil	-2041
▁okş	-2042
▁zan	-2043
▁çam	-2044
erler	-2045
irdim	-2046
leyin	-2047
memek	-2048
sızın	-2049
uştur	-2050
▁Mahm	-2051
▁başı	-2052
▁kırk	-2053
alarda	-2054
amıyor	-2055
larımı	-2056
▁Lâkin	-2057
▁bekle	-2058
▁boylu	-2059
▁canlı	-2060
▁demir	-2061
▁ehemm	-2062
▁gelin	-2063
▁görül	-2064
▁memur	-2065
▁nefes	-2066
▁orada	-2067
▁uğraş	-2068
▁verir	-2069
▁çabuk	-2070
meyecek	-2071
ılmıştı	-2072
▁......	-2073
▁Çelebi	-2074
▁cesaret	-2075
▁kuvvetli	-2076
▁düşünüyor	-2077
ba	-2078
âk	-2079
âl	-2080
ıt	-2081
▁!	-2082
bes	-2083
gâr	-2084
hat	-2085
per	-2086
rim	-2087
ümü	-2088
▁Aş	-2089
▁kâ	-2090
▁Ön	-2091
▁ök	-2092
asih	-2093
ilik	-2094
oyan	-2095
renk	-2096
urum	-2097
▁Kas	-2098
▁Mak	-2099
▁Mut	-2100
▁del	-2101
▁han	-2102
▁kem	-2103
▁kom	-2104
▁mor	-2105
▁pat	-2106
▁çak	-2107
emeye	-2108
▁Hacı	-2109
▁alev	-2110
▁alın	-2111
▁hakk	-2112
▁kele	-2113
▁kişi	-2114
▁koca	-2115
arıyor	-2116
övalye	-2117
▁Dedim	-2118
▁Orhan	-2119
▁kalab	-2120
▁kapan	-2121
▁yarın	-2122
▁yolun	-2123
uyordum	-2124
▁Tercüm	-2125
▁Türkçe	-2126
▁doldur	-2127
▁etmedi	-2128
▁gelmiş	-2129
▁milyon	-2130
▁nefret	-2131
▁oluyor	-2132
▁tarafı	-2133
▁vardır	-2134
▁şeyler	-2135
▁Hakikat	-2136
▁Osmanlı	-2137
▁kapının	-2138
▁olmuştu	-2139
▁başladım	-2140
▁ellerini	-2141
▁arasından	-2142
▁kendisine	-2143
▁yanındaki	-2144
▁arkasından	-2145
▁Â	-2146
amı	-2147
ber	-2148
hul	-2149
kân	-2150
med	-2151
▁ih	-2152
▁ir	-2153
▁ör	-2154
edir	-2155
emiş	-2156
leye	-2157
ması	-2158
▁Nam	-2159
▁Ner	-2160
▁Sar	-2161
▁Süt	-2162
▁ann	-2163
▁dök	-2164
▁hâk	-2165
▁mal	-2166
▁mef	-2167
▁mük	-2168
▁seb	-2169
▁teb	-2170
▁teş	-2171
▁vah	-2172
▁vez	-2173
acağı	-2174
adaki	-2175
andar	-2176
icdan	-2177
mıyor	-2178
tırdı	-2179
▁Eğer	-2180
▁kale	-2181
▁mahs	-2182
▁olsa	-2183
ediyor	-2184
▁Yarın	-2185
▁evine	-2186
▁mıydı	-2187
▁orman	-2188
▁sıktı	-2189
▁tenha	-2190
▁çevir	-2191
▁çiçek	-2192
ıyordum	-2193
▁gündüz	-2194
▁sevinç	-2195
▁yüksel	-2196
▁bakalım	-2197
▁etmişti	-2198
▁içinden	-2199
▁perişan	-2200
▁İstoyan	-2201
▁Müslüman	-2202
▁derecede	-2203
▁hizmetçi	-2204
▁j	-2205
bey	-2206
ela	-2207
eti	-2208
hoş	-2209
kon	-2210
sün	-2211
uya	-2212
var	-2213
▁ef	-2214
▁mâ	-2215
erdi	-2216
iler	-2217
indi	-2218
kten	-2219
tiği	-2220
uzur	-2221
öbet	-2222
ırıl	-2223
▁Kaf	-2224
▁Sel	-2225
▁aff	-2226
▁bet	-2227
▁cep	-2228
▁ise	-2229
▁müş	-2230
▁res	-2231
▁yıl	-2232
▁çök	-2233
alara	-2234
ceğiz	-2235
lamış	-2236
ğımız	-2237
▁Baba	-2238
▁Bunu	-2239
▁Fran	-2240
▁Kayn	-2241
▁boyn	-2242
▁eşek	-2243
▁harp	-2244
▁mahz	-2245
▁prof	-2246
▁sust	-2247
▁taht	-2248
▁çift	-2249
▁düştü	-2250
▁esvap	-2251
▁koştu	-2252
▁kulak	-2253
▁muhit	-2254
▁okudu	-2255
▁tarih	-2256
▁çocuğ	-2257
üyordum	-2258
▁Bilmem	-2259
▁baktım	-2260
▁elleri	-2261
▁hıçkır	-2262
▁onları	-2263
▁verdim	-2264
▁diyorum	-2265
▁geliyor	-2266
▁onların	-2267
▁senelik	-2268
▁vermedi	-2269
▁benzeyen	-2270
rı	-2271
dam	-2272
dun	-2273
kar	-2274
luğ	-2275
tis	-2276
yse	-2277
▁Az	-2278
▁fe	-2279
▁ic	-2280
▁uc	-2281
▁ul	-2282
▁İb	-2283
▁İl	-2284
avuş	-2285
elli	-2286
engi	-2287
inci	-2288
iyen	-2289
oban	-2290
▁Gün	-2291
▁Ona	-2292
▁bom	-2293
▁kor	-2294
▁küf	-2295
▁lev	-2296
▁meç	-2297
▁çeh	-2298
▁Şah	-2299
abını	-2300
adolu	-2301
lıkla	-2302
lığın	-2303
tikçe	-2304
▁Sana	-2305
▁fark	-2306
▁nine	-2307
▁rast	-2308
ceğini	-2309
duğunu	-2310
▁Bugün	-2311
▁almak	-2312
▁bahçe	-2313
▁bulut	-2314
▁eline	-2315
▁gölge	-2316
▁henüz	-2317
▁ihtiy	-2318
▁intik	-2319
▁olduk	-2320
▁sekiz	-2321
▁sesle	-2322
▁yahut	-2323
▁çağır	-2324
lamıştı	-2325
▁Başını	-2326
▁dehşet	-2327
▁devlet	-2328
▁hayret	-2329
▁hediye	-2330
▁kalmış	-2331
▁keskin	-2332
▁meşhur	-2333
▁rüzgar	-2334
▁sessiz	-2335
▁vicdan	-2336
▁yerine	-2337
▁yüzünü	-2338
▁Çerkes	-2339
▁Anadolu	-2340
▁Arkadaş	-2341
▁Türkiye	-2342
▁yapacak	-2343
▁olacaktı	-2344
▁ehemmiyet	-2345
▁tamamıyla	-2346
▁gözleriyle	-2347
▁pencerenin	-2348
op	-2349
ali	-2350
aym	-2351
cık	-2352
eme	-2353
mey	-2354
sof	-2355
ydı	-2356
ücü	-2357
▁Ol	-2358
▁am	-2359
akça	-2360
dest	-2361
umuş	-2362
ğine	-2363
ırtı	-2364
▁Bek	-2365
▁cen	-2366
▁cev	-2367
▁ila	-2368
▁mız	-2369
▁sem	-2370
▁yay	-2371
▁zor	-2372
▁zul	-2373
▁Çık	-2374
▁ört	-2375
▁şef	-2376
▁şık	-2377
adığı	-2378
ağına	-2379
bilir	-2380
muyor	-2381
ıplak	-2382
▁Hava	-2383
▁Kapı	-2384
▁Kork	-2385
▁akıl	-2386
▁anda	-2387
▁bazı	-2388
▁günü	-2389
▁hava	-2390
▁razı	-2391
▁rüya	-2392
▁zevk	-2393
▁çırp	-2394
amadım	-2395
ayarak	-2396
▁Düşün	-2397
▁Karıs	-2398
▁Senin	-2399
▁Yarım	-2400
▁anlay	-2401
▁bacak	-2402
▁beter	-2403
▁biris	-2404
▁duydu	-2405
▁hızla	-2406
▁iyice	-2407
▁kasab	-2408
▁papaz	-2409
▁siper	-2410
eylesof	-2411
ıyorlar	-2412
▁Dışarı	-2413
▁gülerek	-2414
▁Tercüman	-2415
▁dikkatle	-2416
▁ihtiyarî	-2417
▁kadınlar	-2418
▁olmadığını	-2419
uf	-2420
ata	-2421
bah	-2422
bar	-2423
dal	-2424
fet	-2425
uyu	-2426
ehir	-2427
imin	-2428
oğlu	-2429
ulan	-2430
ğünü	-2431
ıyle	-2432
▁Geç	-2433
▁Sak	-2434
▁Yer	-2435
▁döv	-2436
▁eve	-2437
▁kış	-2438
▁mıs	-2439
▁Çoc	-2440
ennem	-2441
imize	-2442
kinci	-2443
leyen	-2444
▁Arap	-2445
▁Uzun	-2446
▁anne	-2447
▁etek	-2448
▁evde	-2449
▁halk	-2450
▁iken	-2451
masını	-2452
yordum	-2453
▁Gayet	-2454
▁Kızıl	-2455
▁akrab	-2456
▁beyim	-2457
▁buldu	-2458
▁cesur	-2459
▁herif	-2460
▁kucağ	-2461
▁mahal	-2462
▁misin	-2463
▁miydi	-2464
▁muhaf	-2465
▁nöbet	-2466
▁vücut	-2467
▁çekil	-2468
alarına	-2469
▁bayrak	-2470
▁elinde	-2471
▁koltuğ	-2472
▁mahsus	-2473
▁mektup	-2474
▁rüzgâr	-2475
▁sarhoş	-2476
▁Fransız	-2477
▁Vallahi	-2478
▁bağırdı	-2479
▁duruyor	-2480
▁görüyor	-2481
▁hükümet	-2482
▁kelebek	-2483
▁kocaman	-2484
▁odasına	-2485
▁sıkıntı	-2486
▁Kaynakça	-2487
▁altından	-2488
▁kıymetli	-2489
▁karşısına	-2490
▁kendisini	-2491
ob	-2492
üb	-2493
▁1	-2494
▁J	-2495
har	-2496
inc	-2497
izi	-2498
ram	-2499
tal	-2500
teş	-2501
▁Gö	-2502
▁um	-2503
amak	-2504
arın	-2505
olun	-2506
▁Kan	-2507
▁Köş	-2508
▁Sev	-2509
▁Vak	-2510
▁ceb	-2511
▁dir	-2512
▁fak	-2513
▁hür	-2514
▁ism	-2515
▁mat	-2516
▁red	-2517
▁tüf	-2518
▁yas	-2519
▁yen	-2520
▁şak	-2521
▁şen	-2522
madım	-2523
mezdi	-2524
▁Hele	-2525
▁dolu	-2526
▁evin	-2527
▁kahv	-2528
▁kısa	-2529
▁mual	-2530
▁okuy	-2531
▁sizi	-2532
▁yüzü	-2533
▁Demek	-2534
▁bakan	-2535
▁bakış	-2536
▁canım	-2537
▁giren	-2538
▁gören	-2539
▁görür	-2540
▁hayır	-2541
▁misaf	-2542
▁muhab	-2543
▁sakin	-2544
▁sefer	-2545
▁varsa	-2546
miyorum	-2547
▁benden	-2548
▁mektep	-2549
▁meçhul	-2550
arıyordu	-2551
▁Mutlaka	-2552
▁görünen	-2553
▁götürdü	-2554
▁gelmişti	-2555
▁muharebe	-2556
▁Birdenbire	-2557
▁birbirlerine	-2558
▁münasebetsiz	-2559
ga	-2560
Ben	-2561
Bir	-2562
bin	-2563
daş	-2564
ddi	-2565
kel	-2566
sam	-2567
yüz	-2568
âkı	-2569
ısı	-2570
▁bö	-2571
aket	-2572
amlı	-2573
anlı	-2574
atın	-2575
gili	-2576
graf	-2577
olla	-2578
oyun	-2579
ğına	-2580
▁Dik	-2581
▁Gal	-2582
▁Kah	-2583
▁Top	-2584
▁Yok	-2585
▁gar	-2586
▁gur	-2587
▁ins	-2588
▁mur	-2589
▁tük	-2590
▁tık	-2591
▁yığ	-2592
▁çor	-2593
▁İlk	-2594
diler	-2595
ladık	-2596
müyor	-2597
ülmüş	-2598
▁Eski	-2599
▁hemş	-2600
▁kahk	-2601
▁koyu	-2602
▁köye	-2603
▁manz	-2604
▁çarş	-2605
▁şair	-2606
▁şeye	-2607
▁şiir	-2608
ağının	-2609
dığını	-2610
ecekti	-2611
likten	-2612
miştim	-2613
▁Belki	-2614
▁Etraf	-2615
▁cigar	-2616
▁evlen	-2617
▁koyun	-2618
▁masum	-2619
▁ondan	-2620
▁pembe	-2621
▁sürdü	-2622
▁talih	-2623
▁yapar	-2624
eceksin	-2625
▁Bunlar	-2626
▁Evvela	-2627
▁Pekala	-2628
▁doktor	-2629
▁ederdi	-2630
▁gördük	-2631
▁hırsız	-2632
▁kaftan	-2633
▁mecbur	-2634
▁oturdu	-2635
▁profil	-2636
▁serbes	-2637
▁biliyor	-2638
▁cinayet	-2639
▁halinde	-2640
▁kabahat	-2641
▁sesleri	-2642
▁çevirdi	-2643
▁aydınlık	-2644
▁cehennem	-2645
▁Hakikaten	-2646
▁kalabalık	-2647
▁padişahın	-2648
▁tarafından	-2649
Ne	-2650
azz	-2651
err	-2652
yet	-2653
âhî	-2654
ört	-2655
ülü	-2656
▁Oh	-2657
▁te	-2658
adık	-2659
ahil	-2660
ebil	-2661
mesi	-2662
stan	-2663
usus	-2664
uşak	-2665
üsun	-2666
ıyan	-2667
▁Sağ	-2668
▁diy	-2669
▁elç	-2670
▁lüz	-2671
▁mağ	-2672
▁muv	-2673
▁müh	-2674
▁sec	-2675
▁zar	-2676
▁ömr	-2677
imizi	-2678
isini	-2679
mamak	-2680
▁Düny	-2681
▁elem	-2682
▁torb	-2683
▁öptü	-2684
esiyle	-2685
ethüdâ	-2686
irleri	-2687
mediği	-2688
mıştım	-2689
uyorum	-2690
▁Frenk	-2691
▁ahlâk	-2692
▁aldım	-2693
▁diğer	-2694
▁erken	-2695
▁giden	-2696
▁hangi	-2697
▁huzur	-2698
▁kanlı	-2699
▁kesil	-2700
▁oraya	-2701
▁tutuş	-2702
▁vapur	-2703
▁yuvar	-2704
▁öğren	-2705
layacak	-2706
▁Mahmud	-2707
▁Mehmet	-2708
▁Mesela	-2709
▁altına	-2710
▁açıldı	-2711
▁kadını	-2712
▁tehlik	-2713
▁uzattı	-2714
▁yerden	-2715
▁şişman	-2716
▁Diyordu	-2717
▁bıraktı	-2718
▁dünyada	-2719
▁evvelki	-2720
▁indirdi	-2721
▁kadının	-2722
▁kesildi	-2723
▁söyleye	-2724
▁verdiği	-2725
▁veriyor	-2726
▁çağırdı	-2727
▁çıkınca	-2728
▁şaşırdı	-2729
▁arkasında	-2730
▁geliyordu	-2731
cü	-2732
go	-2733
şi	-2734
geç	-2735
ing	-2736
iyi	-2737
sil	-2738
unt	-2739
utu	-2740
âne	-2741
▁Du	-2742
▁nâ	-2743
▁ro	-2744
▁ür	-2745
▁İz	-2746
Vire	-2747
adar	-2748
afet	-2749
emin	-2750
oroz	-2751
taki	-2752
tuğu	-2753
uyla	-2754
ışık	-2755
▁Ann	-2756
▁Buy	-2757
▁Diz	-2758
▁Köy	-2759
▁Nef	-2760
▁Yol	-2761
▁emr	-2762
▁kel	-2763
▁key	-2764
▁nur	-2765
▁pey	-2766
▁pis	-2767
▁toz	-2768
amaya	-2769
larca	-2770
▁Penc	-2771
▁alay	-2772
▁atlı	-2773
▁bizi	-2774
▁buna	-2775
▁gele	-2776
▁kule	-2777
▁İnce	-2778
adaruh	-2779
eceğim	-2780
▁Konuş	-2781
▁Mehdi	-2782
▁Molla	-2783
▁Siyah	-2784
▁Yirmi	-2785
▁andır	-2786
▁anlaş	-2787
▁belli	-2788
▁dinle	-2789
▁ettir	-2790
▁fikir	-2791
▁lisan	-2792
▁oldum	-2793
▁tesir	-2794
▁zaten	-2795
lüyordu	-2796
muyordu	-2797
▁Bulgar	-2798
▁Hiçbir	-2799
▁bilmez	-2800
▁cennet	-2801
▁görmek	-2802
▁hayali	-2803
▁jandar	-2804
▁sesini	-2805
▁tahayy	-2806
▁Dadaruh	-2807
▁geldiği	-2808
▁hakaret	-2809
▁kendisi	-2810
▁meydana	-2811
▁misafir	-2812
▁uyandır	-2813
▁şövalye	-2814
alarından	-2815
▁Kumandan	-2816
▁askerler	-2817
▁kalmıştı	-2818
▁kenarına	-2819
▁parlayan	-2820
▁nihayetsiz	-2821
▁parlıyordu	-2822
Bu	-2823
ale	-2824
amm	-2825
beş	-2826
dil	-2827
gâh	-2828
ica	-2829
mas	-2830
men	-2831
rev	-2832
çak	-2833
ğın	-2834
▁Ok	-2835
▁it	-2836
acık	-2837
atan	-2838
azen	-2839
ağıt	-2840
beyi	-2841
elin	-2842
izim	-2843
işti	-2844
oton	-2845
ürdü	-2846
▁Efe	-2847
▁Ert	-2848
▁Tah	-2849
▁Tem	-2850
▁bay	-2851
▁bol	-2852
▁bük	-2853
▁cez	-2854
▁gid	-2855
▁hab	-2856
▁hes	-2857
▁mak	-2858
▁mus	-2859
▁sav	-2860
▁tas	-2861
▁tok	-2862
▁tüy	-2863
▁ves	-2864
▁çiz	-2865
▁Şaş	-2866
addin	-2867
aladı	-2868
cağız	-2869
diven	-2870
diğim	-2871
istan	-2872
seniz	-2873
siyle	-2874
takım	-2875
tirdi	-2876
ımdan	-2877
ımıza	-2878
ıstır	-2879
▁Bize	-2880
▁Perv	-2881
▁Vâkı	-2882
▁Yeni	-2883
▁aynı	-2884
▁iler	-2885
▁kula	-2886
▁kurş	-2887
▁mill	-2888
▁müsa	-2889
▁okum	-2890
▁paşa	-2891
▁sars	-2892
▁sıra	-2893
▁sırt	-2894
▁tanı	-2895
▁zapt	-2896
▁Öbür	-2897
▁âdet	-2898
▁çehr	-2899
iniyor	-2900
kender	-2901
ğinden	-2902
şallah	-2903
▁Fasih	-2904
▁Koton	-2905
▁Yemek	-2906
▁derdi	-2907
▁dünya	-2908
▁fazil	-2909
▁hızlı	-2910
▁lüzum	-2911
▁salon	-2912
▁sanat	-2913
▁saçlı	-2914
▁sokak	-2915
▁tanım	-2916
▁tüfek	-2917
▁yemin	-2918
▁çavuş	-2919
▁ısrar	-2920
ulmuştu	-2921
uyorlar	-2922
▁Burada	-2923
▁Burası	-2924
▁Dikkat	-2925
▁Ertesi	-2926
▁Galiba	-2927
▁Kapıyı	-2928
▁abdest	-2929
▁balkon	-2930
▁buldum	-2931
▁dinlen	-2932
▁dükkân	-2933
▁kapıyı	-2934
▁kumral	-2935
▁mahrum	-2936
▁vazgeç	-2937
▁arasına	-2938
▁bakayım	-2939
▁bunları	-2940
▁istedim	-2941
▁musunuz	-2942
▁uzaklaş	-2943
▁vallahi	-2944
▁yapıyor	-2945
▁değildir	-2946
▁doğruldu	-2947
▁tahayyül	-2948
▁tercüman	-2949
▁İskender	-2950
▁saçlarını	-2951
▁başladılar	-2952
▁çalışıyordu	-2953
▁bakıyorlardı	-2954
.»	-2955
dî	-2956
în	-2957
ûm	-2958
şu	-2959
▁`	-2960
elâ	-2961
ife	-2962
ihn	-2963
kçe	-2964
urt	-2965
yen	-2966
ıcı	-2967
▁Lo	-2968
▁Uy	-2969
▁iy	-2970
▁Üz	-2971
▁öt	-2972
aklı	-2973
arda	-2974
edid	-2975
iddi	-2976
iyim	-2977
meyi	-2978
ümây	-2979
ıyım	-2980
▁Bal	-2981
▁Beş	-2982
▁Dev	-2983
▁Din	-2984
▁Dok	-2985
▁Dön	-2986
▁Fat	-2987
▁Har	-2988
▁Koc	-2989
▁Tar	-2990
▁ayn	-2991
▁esn	-2992
▁meb	-2993
▁muz	-2994
▁rez	-2995
▁süs	-2996
▁süt	-2997
▁sıç	-2998
▁tec	-2999
▁zah	-3000
▁ölü	-3001
▁ürk	-3002
deydi	-3003
irken	-3004
içeri	-3005
kleri	-3006
liydi	-3007
ursuz	-3008
▁Doğr	-3009
▁Kend	-3010
▁Otur	-3011
▁Tabi	-3012
▁ayır	-3013
▁hain	-3014
▁hayv	-3015
▁ipek	-3016
▁kara	-3017
▁kayn	-3018
▁kere	-3019
▁köşk	-3020
▁maym	-3021
▁müte	-3022
▁sesi	-3023
▁sual	-3024
▁zevc	-3025
▁âlem	-3026
ceksin	-3027
iyetle	-3028
liğini	-3029
▁Beyaz	-3030
▁Füsun	-3031
▁Selah	-3032
▁ayrıl	-3033
▁beden	-3034
▁bıyık	-3035
▁gülüş	-3036
▁küfür	-3037
▁matem	-3038
▁muydu	-3039
▁odaya	-3040
▁perde	-3041
▁sedir	-3042
▁sever	-3043
▁soktu	-3044
▁tabiî	-3045
▁veren	-3046
▁ıstır	-3047
▁şehir	-3048
lıyorum	-3049
▁Birbir	-3050
▁Mehmed	-3051
▁başlar	-3052
▁dinler	-3053
▁evvela	-3054
▁geldim	-3055
▁işaret	-3056
▁kapadı	-3057
▁kıvran	-3058
▁mahzun	-3059
▁varmış	-3060
▁çıplak	-3061
alarında	-3062
▁ansızın	-3063
▁elinden	-3064
▁geçirdi	-3065
▁kalmadı	-3066
▁muharip	-3067
▁serbest	-3068
▁Öyleyse	-3069
▁çalıştı	-3070
▁bekliyor	-3071
▁etrafına	-3072
▁muhabbet	-3073
▁yaklaştı	-3074
▁çıkarken	-3075
▁elleriyle	-3076
▁kumandanı	-3077
▁Selahaddin	-3078
▁pencereden	-3079
▁söylüyordu	-3080
Al	-3081
do	-3082
iğ	-3083
ât	-3084
âv	-3085
▁ü	-3086
▁↑	-3087
ant	-3088
anî	-3089
bal	-3090
biy	-3091
day	-3092
ici	-3093
lit	-3094
nda	-3095
tiy	-3096
tiz	-3097
tiş	-3098
▁Mü	-3099
▁Od	-3100
▁Ro	-3101
▁af	-3102
▁eb	-3103
▁ye	-3104
▁çö	-3105
▁Şu	-3106
azar	-3107
hane	-3108
iges	-3109
imle	-3110
irim	-3111
iyâz	-3112
mayı	-3113
rimo	-3114
sarı	-3115
ümüz	-3116
ılıç	-3117
▁Kab	-3118
▁Köp	-3119
▁Saç	-3120
▁Sok	-3121
▁Vez	-3122
▁Yaz	-3123
▁apt	-3124
▁ask	-3125
▁avl	-3126
▁bor	-3127
▁cüm	-3128
▁kuy	-3129
▁kıl	-3130
▁maz	-3131
▁tev	-3132
anlar	-3133
eceği	-3134
emmel	-3135
hamet	-3136
imini	-3137
lamak	-3138
ıldız	-3139
▁Ayak	-3140
▁Dört	-3141
▁Neye	-3142
▁asab	-3143
▁asır	-3144
▁biri	-3145
▁bomb	-3146
▁imiş	-3147
▁kurb	-3148
▁köpr	-3149
▁mert	-3150
▁oğlu	-3151
▁peri	-3152
▁sahi	-3153
▁sürü	-3154
▁İtal	-3155
▁şart	-3156
lerime	-3157
lığına	-3158
ünceye	-3159
▁Buyur	-3160
▁Doğan	-3161
▁Doğru	-3162
▁Hangi	-3163
▁Hüsam	-3164
▁Kadın	-3165
▁Orada	-3166
▁Primo	-3167
▁Sakın	-3168
▁Zaten	-3169
▁aldır	-3170
▁atını	-3171
▁bahar	-3172
▁dokuz	-3173
▁ekmek	-3174
▁etmez	-3175
▁fazla	-3176
▁gümüş	-3177
▁haydi	-3178
▁içtim	-3179
▁kabar	-3180
▁kanat	-3181
▁nazik	-3182
▁resim	-3183
▁roman	-3184
▁sahip	-3185
▁sakal	-3186
▁samim	-3187
▁sebep	-3188
▁sinir	-3189
▁takım	-3190
▁yatak	-3191
▁yürüm	-3192
▁zehir	-3193
▁Çocuk	-3194
▁çoban	-3195
▁İnsan	-3196
▁şaşır	-3197
▁Nereye	-3198
▁Yürüdü	-3199
▁defter	-3200
▁galiba	-3201
▁gittim	-3202
▁ikinci	-3203
▁ilerle	-3204
▁kaleyi	-3205
▁masraf	-3206
▁memnun	-3207
▁söylen	-3208
▁tahamm	-3209
▁takdir	-3210
alarının	-3211
amıyorum	-3212
elikanlı	-3213
iliyordu	-3214
ünüyordu	-3215
▁Almanya	-3216
▁edemedi	-3217
▁fazilet	-3218
▁mahalle	-3219
▁masanın	-3220
▁rastgel	-3221
▁yaptığı	-3222
▁yavaşça	-3223
▁ümitsiz	-3224
▁İçinden	-3225
▁birtakım	-3226
▁bulamadı	-3227
▁durmadan	-3228
▁edeceğim	-3229
▁ettiğini	-3230
▁içindeki	-3231
▁olduğumu	-3232
▁geldiğini	-3233
▁geçiyordu	-3234
▁istiyordu	-3235
▁benziyordu	-3236
!»	-3237
aî	-3238
ro	-3239
zz	-3240
îr	-3241
▁*	-3242
▁I	-3243
gal	-3244
idi	-3245
kun	-3246
lis	-3247
mal	-3248
mel	-3249
sak	-3250
sat	-3251
tun	-3252
zak	-3253
âye	-3254
üsü	-3255
▁Oğ	-3256
▁po	-3257
▁tâ	-3258
algo	-3259
başı	-3260
caya	-3261
cele	-3262
ceği	-3263
eğim	-3264
gile	-3265
itti	-3266
luğu	-3267
meğe	-3268
âhir	-3269
ılık	-3270
şama	-3271
▁Ağz	-3272
▁Bağ	-3273
▁Boy	-3274
▁Han	-3275
▁Mek	-3276
▁Sır	-3277
▁aln	-3278
▁coş	-3279
▁düğ	-3280
▁hoc	-3281
▁hâs	-3282
▁hül	-3283
▁rak	-3284
▁sız	-3285
▁taz	-3286
▁tef	-3287
▁çın	-3288
▁şar	-3289
adıya	-3290
biyat	-3291
ekler	-3292
erviş	-3293
liğin	-3294
masın	-3295
mesin	-3296
teşem	-3297
uları	-3298
ullah	-3299
urlar	-3300
ıştır	-3301
▁Sadi	-3302
▁ağız	-3303
▁edem	-3304
▁elçi	-3305
▁içer	-3306
▁kızı	-3307
▁levh	-3308
▁mânâ	-3309
▁parm	-3310
▁secc	-3311
▁seyr	-3312
▁tepe	-3313
▁tırn	-3314
▁üstü	-3315
alılar	-3316
esiydi	-3317
maktan	-3318
▁Asker	-3319
▁Geniş	-3320
▁Giges	-3321
▁Güzel	-3322
▁Namık	-3323
▁Rahat	-3324
▁almış	-3325
▁babam	-3326
▁birik	-3327
▁boyun	-3328
▁düşen	-3329
▁gidip	-3330
▁günah	-3331
▁haklı	-3332
▁halkı	-3333
▁havuz	-3334
▁hâkim	-3335
▁indir	-3336
▁karan	-3337
▁manev	-3338
▁narin	-3339
▁tabak	-3340
▁çöktü	-3341
▁öksüz	-3342
▁Şalgo	-3343
iyorlar	-3344
larımın	-3345
uyorduk	-3346
▁Avrupa	-3347
▁Derviş	-3348
▁Düşman	-3349
▁Hüsrev	-3350
▁aldığı	-3351
▁bahset	-3352
▁bayram	-3353
▁etmeye	-3354
▁gelmez	-3355
▁geçmiş	-3356
▁gördüğ	-3357
▁kelime	-3358
▁kurşun	-3359
▁onlara	-3360
▁zırhlı	-3361
▁şaşkın	-3362
ediyordu	-3363
▁Gözleri	-3364
▁birinci	-3365
▁bıyıklı	-3366
▁gelecek	-3367
▁istemem	-3368
▁kalacak	-3369
▁kalktım	-3370
▁kimseye	-3371
▁sevgili	-3372
▁telgraf	-3373
▁teselli	-3374
▁çıktığı	-3375
diklerini	-3376
▁Sadrazam	-3377
▁güzellik	-3378
▁hatırlay	-3379
▁muhteşem	-3380
▁söyledim	-3381
▁tahammül	-3382
▁önündeki	-3383
▁şüphesiz	-3384
▁hatırladı	-3385
▁veriyordu	-3386
▁düşünüyordu	-3387
▁görünüyordu	-3388
fi	-3389
lû	-3390
ös	-3391
Kız	-3392
ank	-3393
cun	-3394
eğe	-3395
oda	-3396
oyv	-3397
rif	-3398
ulu	-3399
ûde	-3400
ıla	-3401
▁Da	-3402
▁Mu	-3403
▁ec	-3404
alim	-3405
arat	-3406
biye	-3407
edia	-3408
iyan	-3409
rade	-3410
riye	-3411
ünüz	-3412
ürük	-3413
üyle	-3414
▁Akk	-3415
▁Boğ	-3416
▁Hey	-3417
▁Ort	-3418
▁Sil	-3419
▁Sık	-3420
▁Yak	-3421
▁bat	-3422
▁evi	-3423
▁gay	-3424
▁hac	-3425
▁kov	-3426
▁mül	-3427
▁mıy	-3428
▁nak	-3429
▁nis	-3430
▁nok	-3431
▁reh	-3432
▁siv	-3433
▁tik	-3434
▁tom	-3435
▁tos	-3436
▁Çal	-3437
▁İyi	-3438
asker	-3439
assıp	-3440
asılı	-3441
eğini	-3442
manın	-3443
▁Aman	-3444
▁Peki	-3445
▁fikr	-3446
▁haft	-3447
▁inat	-3448
▁mini	-3449
▁munt	-3450
▁post	-3451
▁sert	-3452
▁sofr	-3453
▁tane	-3454
▁uyum	-3455
adınız	-3456
alarla	-3457
amazdı	-3458
diğini	-3459
eterin	-3460
icaret	-3461
ingene	-3462
larıma	-3463
lenmiş	-3464
lığını	-3465
üstüne	-3466
▁Ahmet	-3467
▁Bedia	-3468
▁Bâhir	-3469
▁Onlar	-3470
▁Sordu	-3471
▁ahenk	-3472
▁duyul	-3473
▁düzel	-3474
▁falan	-3475
▁fedak	-3476
▁görüş	-3477
▁hikây	-3478
▁işiti	-3479
▁korku	-3480
▁kucak	-3481
▁meyus	-3482
▁mânâs	-3483
▁seviş	-3484
▁sükûn	-3485
▁süzdü	-3486
▁uydur	-3487
▁yaşlı	-3488
▁zorla	-3489
▁üzere	-3490
iyetini	-3491
▁Birkaç	-3492
▁Doktor	-3493
▁Hiddet	-3494
▁Pekâlâ	-3495
▁Pencer	-3496
▁aklına	-3497
▁alacak	-3498
▁aşkına	-3499
▁babası	-3500
▁birleş	-3501
▁dayadı	-3502
▁esnada	-3503
▁fırtın	-3504
▁haksız	-3505
▁haline	-3506
▁havaya	-3507
▁hisset	-3508
▁işitti	-3509
▁kaleye	-3510
▁onunla	-3511
▁sandal	-3512
▁senden	-3513
▁toprak	-3514
▁vermek	-3515
▁yapmak	-3516
▁çıkmış	-3517
▁çıktık	-3518
amayacak	-3519
mişlerdi	-3520
▁Dünyada	-3521
▁annemin	-3522
▁bahçeye	-3523
▁bekledi	-3524
▁buradan	-3525
▁ettiler	-3526
▁felaket	-3527
▁intikam	-3528
▁isterim	-3529
▁kahkaha	-3530
▁kalınca	-3531
▁muhafız	-3532
▁rezalet	-3533
▁sıkıldı	-3534
▁uzadıya	-3535
▁uzaktan	-3536
▁şimdiye	-3537
▁anlamadı	-3538
▁ağlamaya	-3539
▁dalgalan	-3540
▁ediyorum	-3541
▁görünmez	-3542
▁hastalan	-3543
▁kapısını	-3544
▁merhamet	-3545
▁mükemmel	-3546
▁rahatsız	-3547
▁toplandı	-3548
▁anlatmaya	-3549
▁babasının	-3550
▁etrafında	-3551
▁gidiyordu	-3552
▁hakikaten	-3553
▁kapısından	-3554
▁titriyordu	-3555
Ah	-3556
bî	-3557
dd	-3558
dâ	-3559
ıb	-3560
aca	-3561
alt	-3562
ağf	-3563
bül	-3564
dut	-3565
dız	-3566
fer	-3567
iki	-3568
ize	-3569
kal	-3570
las	-3571
lâh	-3572
mür	-3573
omo	-3574
ruk	-3575
sal	-3576
skü	-3577
ton	-3578
▁Am	-3579
▁Eş	-3580
▁Gr	-3581
▁ey	-3582
▁iğ	-3583
▁ut	-3584
▁üş	-3585
assâ	-3586
azia	-3587
bule	-3588
dole	-3589
ktan	-3590
liğe	-3591
mail	-3592
uluğ	-3593
unca	-3594
ıltı	-3595
ıska	-3596
▁Cem	-3597
▁Dar	-3598
▁Der	-3599
▁Hır	-3600
▁Yap	-3601
▁Yen	-3602
▁adi	-3603
▁bes	-3604
▁bez	-3605
▁beğ	-3606
▁cel	-3607
▁dâh	-3608
▁ekş	-3609
▁esv	-3610
▁fes	-3611
▁gev	-3612
▁göm	-3613
▁ham	-3614
▁hod	-3615
▁koç	-3616
▁küç	-3617
▁ust	-3618
▁yuv	-3619
▁çub	-3620
Kızıl	-3621
alang	-3622
cağın	-3623
dırdı	-3624
ladın	-3625
mazdı	-3626
retti	-3627
tihar	-3628
ultan	-3629
ımızı	-3630
ıpkır	-3631
▁Açık	-3632
▁Buna	-3633
▁Elen	-3634
▁Kral	-3635
▁Kırk	-3636
▁Mavi	-3637
▁Müst	-3638
▁Seni	-3639
▁Size	-3640
▁asil	-3641
▁bedi	-3642
▁canı	-3643
▁derv	-3644
▁edil	-3645
▁emin	-3646
▁emir	-3647
▁eser	-3648
▁etme	-3649
▁ezel	-3650
▁hiss	-3651
▁kalç	-3652
▁kimi	-3653
▁ruhu	-3654
▁sızı	-3655
▁terk	-3656
▁ufuk	-3657
▁uyku	-3658
▁yeri	-3659
▁yiye	-3660
▁Üskü	-3661
aassıp	-3662
amıştı	-3663
imizin	-3664
ğından	-3665
▁Akşam	-3666
▁Cevap	-3667
▁Daima	-3668
▁Dudak	-3669
▁Elini	-3670
▁Fatma	-3671
▁Karım	-3672
▁Murat	-3673
▁Silah	-3674
▁Vakit	-3675
▁Vedid	-3676
▁Vezir	-3677
▁Vâkıâ	-3678
▁acaba	-3679
▁alçak	-3680
▁aradı	-3681
▁aylık	-3682
▁açtım	-3683
▁bazen	-3684
▁davet	-3685
▁ebedi	-3686
▁gazet	-3687
▁gelip	-3688
▁hakkı	-3689
▁hesap	-3690
▁horoz	-3691
▁hümây	-3692
▁külah	-3693
▁muazz	-3694
▁mütev	-3695
▁mırıl	-3696
▁olmay	-3697
▁parça	-3698
▁saray	-3699
▁surat	-3700
▁yarıs	-3701
▁yokuş	-3702
▁âdeta	-3703
▁ürper	-3704
alardan	-3705
usundan	-3706
▁Grazia	-3707
▁Sütûde	-3708
▁adamdı	-3709
▁arıyor	-3710
▁atıldı	-3711
▁bilmem	-3712
▁gitmek	-3713
▁gündür	-3714
▁kullan	-3715
▁mızrak	-3716
▁olacağ	-3717
▁sandık	-3718
▁tombul	-3719
▁toplan	-3720
▁uyuyan	-3721
▁yavrum	-3722
▁çarşaf	-3723
▁çocuğu	-3724
▁İsmail	-3725
▁şeyden	-3726
mışlardı	-3727
▁Makbule	-3728
▁adamlar	-3729
▁babamın	-3730
▁büyüyor	-3731
▁dibinde	-3732
▁düşünür	-3733
▁ederler	-3734
▁fenalık	-3735
▁geçiyor	-3736
▁murassâ	-3737
▁müsaade	-3738
▁oturmuş	-3739
▁sapsarı	-3740
▁sarıldı	-3741
▁sefalet	-3742
▁sırmalı	-3743
▁uzanmış	-3744
▁vakitki	-3745
▁Üsküdar	-3746
▁önünden	-3747
▁ıstırap	-3748
lerindeki	-3749
▁bahçenin	-3750
▁değiştir	-3751
▁dikkatli	-3752
▁dışarıya	-3753
▁feylesof	-3754
▁hatırlat	-3755
▁milletin	-3756
▁minimini	-3757
▁muntazam	-3758
▁mırıldan	-3759
▁olduğuna	-3760
▁sallanan	-3761
▁verdiler	-3762
▁yapılmış	-3763
▁biliyordu	-3764
▁kenarında	-3765
▁padişahım	-3766
▁tarafında	-3767
▁çıkıyordu	-3768
▁bakıyordum	-3769
▁ediyorlardı	-3770
!”	-3771
mz	-3772
ni	-3773
oh	-3774
uc	-3775
ğa	-3776
end	-3777
eyh	-3778
ezz	-3779
gah	-3780
hem	-3781
ide	-3782
itm	-3783
lış	-3784
uzu	-3785
yal	-3786
yol	-3787
ânî	-3788
üyü	-3789
▁Eğ	-3790
▁Ku	-3791
▁``	-3792
▁bî	-3793
▁âş	-3794
▁üc	-3795
atlı	-3796
dala	-3797
icim	-3798
ifte	-3799
imağ	-3800
imet	-3801
seri	-3802
taat	-3803
trik	-3804
udum	-3805
umun	-3806
âzım	-3807
üldü	-3808
ülen	-3809
▁Cam	-3810
▁Dal	-3811
▁Hâs	-3812
▁Kıs	-3813
▁Sip	-3814
▁Ver	-3815
▁Zon	-3816
▁ait	-3817
▁biç	-3818
▁büz	-3819
▁cem	-3820
▁cih	-3821
▁küm	-3822
▁mür	-3823
▁sed	-3824
▁tuğ	-3825
▁ulv	-3826
▁öle	-3827
▁şuh	-3828
afile	-3829
amdan	-3830
arsın	-3831
beyaz	-3832
danın	-3833
derek	-3834
dılar	-3835
dığım	-3836
erkez	-3837
riyet	-3838
sinde	-3839
tikat	-3840
tular	-3841
usunu	-3842
ılgın	-3843
▁"...	-3844
▁Acem	-3845
▁Amer	-3846
▁Olur	-3847
▁Sırt	-3848
▁alır	-3849
▁aman	-3850
▁atıl	-3851
▁burç	-3852
▁ekme	-3853
▁hanç	-3854
▁hırs	-3855
▁iddi	-3856
▁idim	-3857
▁itti	-3858
▁kalp	-3859
▁karn	-3860
▁kral	-3861
▁mâbe	-3862
▁nokt	-3863
▁plan	-3864
▁reng	-3865
▁rica	-3866
▁sıçr	-3867
▁tahk	-3868
▁topç	-3869
▁vakt	-3870
▁yani	-3871
▁zihn	-3872
▁Üzer	-3873
▁ölen	-3874
▁örtü	-3875
▁İboş	-3876
ayacak	-3877
garitm	-3878
ilecek	-3879
iyetin	-3880
mesine	-3881
omobil	-3882
sinden	-3883
ımızda	-3884
▁Başka	-3885
▁Derin	-3886
▁Vapur	-3887
▁Yanım	-3888
▁acele	-3889
▁aptal	-3890
▁atlar	-3891
▁bilen	-3892
▁bitir	-3893
▁bozuk	-3894
▁bozul	-3895
▁boğaz	-3896
▁cicim	-3897
▁ciddi	-3898
▁dikti	-3899
▁gayri	-3900
▁gözüm	-3901
▁günde	-3902
▁intiz	-3903
▁kaçtı	-3904
▁kemik	-3905
▁kolay	-3906
▁komşu	-3907
▁köylü	-3908
▁lâzım	-3909
▁meden	-3910
▁pazar	-3911
▁sustu	-3912
▁takip	-3913
▁temin	-3914
▁verem	-3915
▁yürüy	-3916
▁çorap	-3917
▁şeyin	-3918
ağından	-3919
embeyaz	-3920
irlerdi	-3921
tıkları	-3922
ıştılar	-3923
▁Hâsılı	-3924
▁Kalktı	-3925
▁Rumeli	-3926
▁Rumlar	-3927
▁adamın	-3928
▁aralık	-3929
▁atladı	-3930
▁ağzına	-3931
▁benzer	-3932
▁derviş	-3933
▁giydir	-3934
▁gözünü	-3935
▁haberi	-3936
▁heykel	-3937
▁kandır	-3938
▁kapısı	-3939
▁kaybet	-3940
▁kolunu	-3941
▁kıpkır	-3942
▁liraya	-3943
▁neresi	-3944
▁parçal	-3945
▁ruhuna	-3946
▁sipahi	-3947
▁versin	-3948
▁yaldız	-3949
▁yetmiş	-3950
▁yıldız	-3951
▁çırpın	-3952
alarıyla	-3953
unuyordu	-3954
ılıyordu	-3955
▁Cevriye	-3956
▁Efendim	-3957
▁ağlıyor	-3958
▁ettiğim	-3959
▁gördüğü	-3960
▁göründü	-3961
▁gözünün	-3962
▁hararet	-3963
▁hepimiz	-3964
▁isteyen	-3965
▁koltuğa	-3966
▁muhareb	-3967
▁namuslu	-3968
▁nargile	-3969
▁nöbetçi	-3970
▁olmasın	-3971
▁pencere	-3972
▁sandaly	-3973
▁ticaret	-3974
▁veterin	-3975
▁yerinde	-3976
▁Çingene	-3977
▁şeyleri	-3978
üyorlardı	-3979
▁Geceleri	-3980
▁açlıktan	-3981
▁başladık	-3982
▁bilmiyor	-3983
▁binlerce	-3984
▁bunların	-3985
▁demektir	-3986
▁edebiyat	-3987
▁erkenden	-3988
▁geceleri	-3989
▁gittikçe	-3990
▁görmüyor	-3991
▁gösterdi	-3992
▁karıştır	-3993
▁konuştuk	-3994
▁ölünceye	-3995
▁şiddetle	-3996
▁arkadaşım	-3997
▁mutaassıp	-3998
▁yapacağım	-3999
▁üstündeki	-4000
▁Sabahleyin	-4001
▁diyorlardı	-4002
▁ağaçlarının	-4003
",	-4004
.”	-4005
sü	-4006
yu	-4007
Hay	-4008
bat	-4009
bel	-4010
cik	-4011
faf	-4012
gan	-4013
hal	-4014
inç	-4015
içe	-4016
kil	-4017
mir	-4018
olg	-4019
rah	-4020
süm	-4021
tüm	-4022
zil	-4023
▁Sa	-4024
▁do	-4025
▁ke	-4026
▁us	-4027
▁Öl	-4028
▁Öp	-4029
?...	-4030
bile	-4031
ddüt	-4032
ehli	-4033
elen	-4034
eğer	-4035
iriz	-4036
mağa	-4037
ümde	-4038
ünce	-4039
ıcık	-4040
ınıf	-4041
▁Boz	-4042
▁Fer	-4043
▁Kay	-4044
▁Koş	-4045
▁Mar	-4046
▁Meş	-4047
▁Mül	-4048
▁Nih	-4049
▁Sof	-4050
▁Sus	-4051
▁Tav	-4052
▁Taş	-4053
▁Tes	-4054
▁Tor	-4055
▁Tut	-4056
▁Yav	-4057
▁Yağ	-4058
▁bre	-4059
▁dip	-4060
▁doy	-4061
▁fıs	-4062
▁hel	-4063
▁keş	-4064
▁kör	-4065
▁kür	-4066
▁lak	-4067
▁lam	-4068
▁met	-4069
▁müd	-4070
▁nes	-4071
▁oda	-4072
▁rah	-4073
▁sel	-4074
▁soy	-4075
▁zey	-4076
▁çoğ	-4077
▁çuv	-4078
▁çöz	-4079
▁Şeh	-4080
armış	-4081
essir	-4082
eşekk	-4083
lının	-4084
rahim	-4085
seder	-4086
seler	-4087
tedir	-4088
terem	-4089
tiniz	-4090
tıkça	-4091
ülbül	-4092
▁Amma	-4093
▁Gayr	-4094
▁Geri	-4095
▁Hala	-4096
▁Hâlâ	-4097
▁Titr	-4098
▁ahal	-4099
▁ahır	-4100
▁alan	-4101
▁azap	-4102
▁dost	-4103
▁emel	-4104
▁genc	-4105
▁hali	-4106
▁hays	-4107
▁hudu	-4108
▁maaş	-4109
▁mand	-4110
▁mefk	-4111
▁meşg	-4112
▁olup	-4113
▁renk	-4114
▁sadr	-4115
▁sall	-4116
▁sonu	-4117
▁sözü	-4118
▁tavs	-4119
▁taşı	-4120
▁uçuş	-4121
▁yola	-4122
▁zann	-4123
▁zinc	-4124
▁âlim	-4125
▁öğüt	-4126
▁Şüph	-4127
imizde	-4128
isinin	-4129
liğine	-4130
madığı	-4131
mışlar	-4132
ulacak	-4133
unuyor	-4134
ımızın	-4135
▁Babam	-4136
▁Döndü	-4137
▁Geçen	-4138
▁Kalbi	-4139
▁Ondan	-4140
▁Paris	-4141
▁Tuhaf	-4142
▁Zondi	-4143
▁aldat	-4144
▁baban	-4145
▁beğen	-4146
▁cahil	-4147
▁dakik	-4148
▁erzak	-4149
▁etmem	-4150
▁gerek	-4151
▁geçer	-4152
▁harik	-4153
▁ilave	-4154
▁istif	-4155
▁itaat	-4156
▁kabus	-4157
▁kanep	-4158
▁kanun	-4159
▁kaçır	-4160
▁kesti	-4161
▁keyif	-4162
▁kopar	-4163
▁mezar	-4164
▁muhac	-4165
▁münak	-4166
▁müteh	-4167
▁nedir	-4168
▁nefis	-4169
▁oturt	-4170
▁rengi	-4171
▁sallı	-4172
▁satır	-4173
▁serin	-4174
▁sivri	-4175
▁sıska	-4176
▁tahta	-4177
▁tokat	-4178
▁tütün	-4179
▁vezir	-4180
▁vurdu	-4181
▁yakış	-4182
▁yığın	-4183
▁zalim	-4184
▁zulüm	-4185
▁Âdeta	-4186
bilirdi	-4187
emediği	-4188
ereddüt	-4189
lardaki	-4190
mayalım	-4191
müyordu	-4192
▁Devlet	-4193
▁Gülüms	-4194
▁Hizmet	-4195
▁Karısı	-4196
▁Karşıs	-4197
▁Pervin	-4198
▁altmış	-4199
▁ayakta	-4200
▁azizim	-4201
▁birini	-4202
▁davran	-4203
▁derler	-4204
▁gazete	-4205
▁hikmet	-4206
▁hikâye	-4207
▁ibaret	-4208
▁kalkar	-4209
▁kapalı	-4210
▁karısı	-4211
▁kethüd	-4212
▁mandır	-4213
▁manzar	-4214
▁maymun	-4215
▁miskin	-4216
▁olursa	-4217
▁rasgel	-4218
▁reddet	-4219
▁saldır	-4220
▁seccad	-4221
▁zannet	-4222
▁şeffaf	-4223
▁şefkat	-4224
lerimizi	-4225
▁.......	-4226
▁Amerika	-4227
▁Kapıdan	-4228
▁Kethüdâ	-4229
▁bilmedi	-4230
▁bulunan	-4231
▁dinledi	-4232
▁ederken	-4233
▁eğlence	-4234
▁girince	-4235
▁hemşeri	-4236
▁ihtiyac	-4237
▁muallim	-4238
▁ordusun	-4239
▁oturduk	-4240
▁uğursuz	-4241
▁yatağın	-4242
▁ömründe	-4243
▁İbrahim	-4244
▁İtalyan	-4245
amıyordum	-4246
▁Avrupalı	-4247
▁Doğruldu	-4248
▁Ellerini	-4249
▁Logaritm	-4250
▁ayakları	-4251
▁başlayan	-4252
▁bembeyaz	-4253
▁geçmeden	-4254
▁ilerledi	-4255
▁kazasker	-4256
▁merdiven	-4257
▁muhterem	-4258
▁odasında	-4259
▁olmadığı	-4260
▁profilli	-4261
▁yükselen	-4262
▁Şüphesiz	-4263
▁Başüstüne	-4264
▁Türklerin	-4265
▁altındaki	-4266
▁ediyordum	-4267
▁ihtiyarın	-4268
▁istiyorum	-4269
▁kapısının	-4270
▁kocasının	-4271
▁saatlerce	-4272
▁tehlikeli	-4273
▁tercümana	-4274
▁yürüyordu	-4275
▁çocukları	-4276
▁duyuyordum	-4277
▁gözlerinin	-4278
▁kadınların	-4279
▁kalmamıştı	-4280
▁kıpkırmızı	-4281
▁tekrarladı	-4282
▁arkasındaki	-4283
▁karşısındaki	-4284
?”	-4285
fe	-4286
gi	-4287
ov	-4288
tr	-4289
îm	-4290
ûl	-4291
üh	-4292
▁‘	-4293
ahu	-4294
any	-4295
are	-4296
ese	-4297
eta	-4298
fil	-4299
ind	-4300
kış	-4301
naz	-4302
âtı	-4303
ğiz	-4304
▁me	-4305
▁na	-4306
▁Öğ	-4307
▁öz	-4308
...”	-4309
abbi	-4310
abit	-4311
akim	-4312
andı	-4313
asar	-4314
ayla	-4315
dedi	-4316
eğin	-4317
icik	-4318
ilip	-4319
oluk	-4320
teri	-4321
tesi	-4322
unan	-4323
▁Akl	-4324
▁Bay	-4325
▁Bin	-4326
▁Büy	-4327
▁Hız	-4328
▁Kes	-4329
▁Kit	-4330
▁Kom	-4331
▁Kul	-4332
▁Mal	-4333
▁Sek	-4334
▁Sem	-4335
▁Ses	-4336
▁Tep	-4337
▁Tur	-4338
▁atı	-4339
▁cil	-4340
▁cıv	-4341
▁des	-4342
▁duâ	-4343
▁evl	-4344
▁gag	-4345
▁içi	-4346
▁kâb	-4347
▁kâr	-4348
▁küt	-4349
▁meh	-4350
▁müp	-4351
▁nik	-4352
▁pah	-4353
▁ref	-4354
▁rev	-4355
▁tit	-4356
▁zek	-4357
▁çığ	-4358
▁şap	-4359
affak	-4360
cılar	-4361
denin	-4362
dınız	-4363
elâik	-4364
eriye	-4365
inizi	-4366
isine	-4367
işman	-4368
lattı	-4369
layıp	-4370
medin	-4371
rendi	-4372
usuna	-4373
ürler	-4374
▁Hani	-4375
▁Köse	-4376
▁Para	-4377
▁Sarı	-4378
▁Uzak	-4379
▁alış	-4380
▁başk	-4381
▁diri	-4382
▁duyg	-4383
▁elbi	-4384
▁gözy	-4385
▁gözü	-4386
▁hatt	-4387
▁icap	-4388
▁isim	-4389
▁kaba	-4390
▁küme	-4391
▁kıza	-4392
▁perd	-4393
▁pire	-4394
▁taze	-4395
▁öbür	-4396
▁şekl	-4397
▁şere	-4398
amlıca	-4399
aşları	-4400
cektim	-4401
eceğiz	-4402
inecek	-4403
iyatro	-4404
iyeler	-4405
ülüyor	-4406
üyorum	-4407
▁Ayağa	-4408
▁Bunun	-4409
▁Duvar	-4410
▁Eleni	-4411
▁Hayal	-4412
▁Kenan	-4413
▁Kılıç	-4414
▁Yahut	-4415
▁Zâbit	-4416
▁adeta	-4417
▁anlar	-4418
▁asılı	-4419
▁bakın	-4420
▁bağlı	-4421
▁bediî	-4422
▁demin	-4423
▁dimağ	-4424
▁duyar	-4425
▁düşür	-4426
▁etsin	-4427
▁ezelî	-4428
▁gurur	-4429
▁gözlü	-4430
▁hadem	-4431
▁haric	-4432
▁husus	-4433
▁iftir	-4434
▁iktis	-4435
▁inkar	-4436
▁istik	-4437
▁istir	-4438
▁kalbi	-4439
▁kalır	-4440
▁kağıt	-4441
▁keder	-4442
▁keser	-4443
▁kilis	-4444
▁kömür	-4445
▁kılıc	-4446
▁miyim	-4447
▁mısın	-4448
▁nefer	-4449
▁oynat	-4450
▁sahil	-4451
▁seyre	-4452
▁tavır	-4453
▁yasak	-4454
▁yayan	-4455
▁yaşın	-4456
▁çuval	-4457
▁İster	-4458
▁İçeri	-4459
▁ıslak	-4460
▁şehit	-4461
▁şöyle	-4462
acaktım	-4463
lanarak	-4464
leniyor	-4465
leriniz	-4466
▁Gülsüm	-4467
▁Nerede	-4468
▁Yüzünü	-4469
▁anladı	-4470
▁ağzını	-4471
▁beyler	-4472
▁boyalı	-4473
▁bulmak	-4474
▁bülbül	-4475
▁cigara	-4476
▁denize	-4477
▁dibine	-4478
▁edemez	-4479
▁ediniz	-4480
▁ertesi	-4481
▁ferman	-4482
▁gayret	-4483
▁gurbet	-4484
▁hançer	-4485
▁hasret	-4486
▁hayatı	-4487
▁hürmet	-4488
▁ibadet	-4489
▁ismini	-4490
▁kalkıp	-4491
▁kurban	-4492
▁kurbağ	-4493
▁mermer	-4494
▁olamaz	-4495
▁oturan	-4496
▁sahibi	-4497
▁servet	-4498
▁sipâhî	-4499
▁sokağa	-4500
▁tabiat	-4501
▁tahkir	-4502
▁taklit	-4503
▁terbiy	-4504
▁tırman	-4505
▁uçurum	-4506
▁Çerkez	-4507
muşlardı	-4508
ınıyordu	-4509
▁Candole	-4510
▁Kendimi	-4511
▁andıran	-4512
▁bakmaya	-4513
▁boynuna	-4514
▁fedakar	-4515
▁gidelim	-4516
▁gittiği	-4517
▁görülen	-4518
▁göğsüne	-4519
▁hayalin	-4520
▁intizam	-4521
▁kopardı	-4522
▁misiniz	-4523
▁ruhunda	-4524
▁saçları	-4525
▁titredi	-4526
▁uyurken	-4527
▁verecek	-4528
▁yaşamak	-4529
▁yumuşak	-4530
▁zamanda	-4531
▁çekildi	-4532
▁ölümden	-4533
lanıyordu	-4534
▁Bunların	-4535
▁Hepsinin	-4536
▁bakarken	-4537
▁bekleyen	-4538
▁burasını	-4539
▁buruştur	-4540
▁dünyanın	-4541
▁gölgeler	-4542
▁gönderdi	-4543
▁kaldılar	-4544
▁kapısına	-4545
▁karargah	-4546
▁namussuz	-4547
▁parlıyor	-4548
▁taraftan	-4549
▁tarafına	-4550
▁yeniçeri	-4551
▁yüzünden	-4552
▁çubuğunu	-4553
▁Arkadaşım	-4554
▁Fransızca	-4555
▁anneciğim	-4556
▁düşünerek	-4557
▁ediyorsun	-4558
▁getirdiği	-4559
▁getiriyor	-4560
▁görüyordu	-4561
▁gözlerimi	-4562
▁hareketle	-4563
▁konuşalım	-4564
▁sayesinde	-4565
▁sözlerini	-4566
▁bekliyordu	-4567
▁görünmeyen	-4568
▁görüyordum	-4569
▁göstererek	-4570
▁söyleyeyim	-4571
▁şövalyeler	-4572
▁dudaklarını	-4573
▁nihayetinde	-4574
ko	-4575
râ	-4576
su	-4577
yö	-4578
za	-4579
âf	-4580
ûn	-4581
amb	-4582
anc	-4583
arş	-4584
baz	-4585
eya	-4586
lek	-4587
nav	-4588
nde	-4589
rin	-4590
sık	-4591
tep	-4592
tif	-4593
ucu	-4594
ümr	-4595
üng	-4596
üye	-4597
ıza	-4598
▁Ab	-4599
▁Af	-4600
▁dî	-4601
▁ej	-4602
▁ka	-4603
▁sö	-4604
adis	-4605
akin	-4606
düğü	-4607
edil	-4608
eten	-4609
hhat	-4610
imen	-4611
iyiz	-4612
iğer	-4613
lemi	-4614
mağı	-4615
meli	-4616
tede	-4617
udur	-4618
örük	-4619
ösyö	-4620
üdüm	-4621
ürüm	-4622
ıktı	-4623
▁Alt	-4624
▁And	-4625
▁Aşk	-4626
▁Gök	-4627
▁Göğ	-4628
▁Gür	-4629
▁Haf	-4630
▁Kaç	-4631
▁Kül	-4632
▁Mad	-4633
▁Müt	-4634
▁Mıs	-4635
▁buy	-4636
▁civ	-4637
▁ens	-4638
▁gaf	-4639
▁güç	-4640
▁hap	-4641
▁haş	-4642
▁iti	-4643
▁ley	-4644
▁lây	-4645
▁mad	-4646
▁med	-4647
▁müc	-4648
▁niz	-4649
▁nut	-4650
▁ols	-4651
▁sad	-4652
▁siy	-4653
▁sığ	-4654
▁tuf	-4655
▁vir	-4656
▁yam	-4657
▁zap	-4658
▁İht	-4659
Allah	-4660
amıza	-4661
andır	-4662
ağıya	-4663
benin	-4664
cığım	-4665
dikçe	-4666
divaç	-4667
durdu	-4668
ekkül	-4669
etine	-4670
ilmez	-4671
iyazi	-4672
lenin	-4673
medik	-4674
parat	-4675
ınıza	-4676
ırdım	-4677
ırttı	-4678
▁Altı	-4679
▁Bahç	-4680
▁Ordu	-4681
▁Otuz	-4682
▁Rose	-4683
▁Uyan	-4684
▁akis	-4685
▁arzu	-4686
▁baba	-4687
▁ders	-4688
▁evet	-4689
▁gemi	-4690
▁göre	-4691
▁ilaç	-4692
▁iman	-4693
▁indi	-4694
▁içti	-4695
▁kedi	-4696
▁kötü	-4697
▁lamb	-4698
▁lezz	-4699
▁mola	-4700
▁must	-4701
▁mutf	-4702
▁nesi	-4703
▁onda	-4704
▁pren	-4705
▁uşak	-4706
▁yalı	-4707
▁Ölüm	-4708
▁ısır	-4709
▁şaha	-4710
ademki	-4711
amayan	-4712
amızda	-4713
ağıyla	-4714
ceğine	-4715
efendi	-4716
emedim	-4717
lendim	-4718
lerdir	-4719
leştir	-4720
mişler	-4721
ruğunu	-4722
tığını	-4723
undaki	-4724
▁Anlam	-4725
▁Arnav	-4726
▁Güneş	-4727
▁Hayat	-4728
▁Kasım	-4729
▁Kimse	-4730
▁Meğer	-4731
▁Namus	-4732
▁Neden	-4733
▁Yalan	-4734
▁adama	-4735
▁adamı	-4736
▁aleyh	-4737
▁alkış	-4738
▁araba	-4739
▁arsız	-4740
▁ateşi	-4741
▁attım	-4742
▁azgın	-4743
▁bakar	-4744
▁büyüt	-4745
▁donuk	-4746
▁ejder	-4747
▁elmas	-4748
▁fakir	-4749
▁fasıl	-4750
▁felse	-4751
▁ferah	-4752
▁gevez	-4753
▁harap	-4754
▁hâtır	-4755
▁ihsan	-4756
▁imdat	-4757
▁imkan	-4758
▁işine	-4759
▁kaybe	-4760
▁kayış	-4761
▁kemer	-4762
▁kilit	-4763
▁koşuş	-4764
▁köyün	-4765
▁muvaf	-4766
▁nişan	-4767
▁onbeş	-4768
▁onlar	-4769
▁riyâz	-4770
▁sürün	-4771
▁tarif	-4772
▁tutan	-4773
▁vahşi	-4774
▁vazif	-4775
▁yoksa	-4776
▁Önüne	-4777
▁çelik	-4778
▁çoğal	-4779
▁ölmüş	-4780
▁öteki	-4781
▁öğret	-4782
▁İkisi	-4783
▁İzmir	-4784
▁şarap	-4785
▁şeref	-4786
▁şeydi	-4787
dıkları	-4788
ehlivan	-4789
iyetine	-4790
leyerek	-4791
mayınız	-4792
parator	-4793
▁Annesi	-4794
▁Buraya	-4795
▁Sultan	-4796
▁Yağmur	-4797
▁açılan	-4798
▁baston	-4799
▁baştan	-4800
▁bunlar	-4801
▁büyüdü	-4802
▁cephan	-4803
▁dargın	-4804
▁dükkan	-4805
▁düşmüş	-4806
▁geldik	-4807
▁gencin	-4808
▁girmiş	-4809
▁görmüş	-4810
▁kafası	-4811
▁kalmak	-4812
▁kalmaz	-4813
▁kandil	-4814
▁mahmuz	-4815
▁melâik	-4816
▁meşgul	-4817
▁muhakk	-4818
▁müphem	-4819
▁nereye	-4820
▁odanın	-4821
▁oradan	-4822
▁saklan	-4823
▁sevgil	-4824
▁söndür	-4825
▁söylet	-4826
▁teşkil	-4827
▁vesika	-4828
▁yangın	-4829
▁yanlış	-4830
▁yaptır	-4831
▁yatağa	-4832
▁çıkmaz	-4833
▁çıktım	-4834
iyetiyle	-4835
▁Ansızın	-4836
▁Benimle	-4837
▁Kalenin	-4838
▁Onların	-4839
▁Papazın	-4840
▁ağaçlar	-4841
▁bakınız	-4842
▁birbiri	-4843
▁bırakıp	-4844
▁dayandı	-4845
▁dünyaya	-4846
▁gelirdi	-4847
▁gizlice	-4848
▁gülüyor	-4849
▁günleri	-4850
▁kişicik	-4851
▁kolları	-4852
▁oldular	-4853
▁olmadan	-4854
▁ordugâh	-4855
▁sarıklı	-4856
▁serseri	-4857
▁tercüme	-4858
▁tuttuğu	-4859
▁tüyleri	-4860
▁vücudun	-4861
▁yalancı	-4862
▁Çamlıca	-4863
▁öğrendi	-4864
tıklarını	-4865
▁Feylesof	-4866
▁Müstakim	-4867
▁alacağım	-4868
▁dehşetli	-4869
▁diyordum	-4870
▁dönerken	-4871
▁düşmüştü	-4872
▁edecekti	-4873
▁gezdirdi	-4874
▁giderken	-4875
▁girdiler	-4876
▁gözlerim	-4877
▁hakikati	-4878
▁herkesin	-4879
▁jandarma	-4880
▁kafasına	-4881
▁kafasını	-4882
▁kalbinde	-4883
▁kimsenin	-4884
▁kucağına	-4885
▁muvaffak	-4886
▁tereddüt	-4887
▁vücudunu	-4888
▁yerinden	-4889
▁yerlerde	-4890
▁yetiştir	-4891
▁zamanlar	-4892
miyorlardı	-4893
▁birbirine	-4894
▁birisinin	-4895
▁delikanlı	-4896
▁düşünmeye	-4897
▁gideceğiz	-4898
▁gülüyordu	-4899
▁kadınları	-4900
▁karısının	-4901
▁köşesinde	-4902
▁nazarında	-4903
▁ortasında	-4904
▁yapacağız	-4905
▁yollardan	-4906
▁eteklerini	-4907
▁gönderdiği	-4908
▁titreyerek	-4909
▁Logaritmacı	-4910
▁gözlerinden	-4911
An	-4912
fk	-4913
mî	-4914
mü	-4915
öh	-4916
ûd	-4917
ğu	-4918
şe	-4919
aka	-4920
alâ	-4921
ans	-4922
asa	-4923
ayd	-4924
baş	-4925
car	-4926
dek	-4927
erç	-4928
fon	-4929
gur	-4930
ice	-4931
irk	-4932
oya	-4933
oyu	-4934
pey	-4935
sas	-4936
sey	-4937
sim	-4938
tah	-4939
uli	-4940
yat	-4941
âni	-4942
übe	-4943
ımn	-4944
▁Dî	-4945
▁Gü	-4946
▁Is	-4947
▁Kâ	-4948
▁Sı	-4949
▁Ta	-4950
▁re	-4951
▁si	-4952
▁yi	-4953
acer	-4954
adüf	-4955
atif	-4956
aşır	-4957
dafa	-4958
emem	-4959
erih	-4960
eyin	-4961
eyiz	-4962
iroz	-4963
işer	-4964
kara	-4965
kele	-4966
mini	-4967
nala	-4968
onya	-4969
umda	-4970
âdan	-4971
övbe	-4972
ılıp	-4973
ınık	-4974
▁Ber	-4975
▁Ceb	-4976
▁Eve	-4977
▁Gaz	-4978
▁Kaş	-4979
▁Kir	-4980
▁Laf	-4981
▁Mas	-4982
▁Mey	-4983
▁Mir	-4984
▁Per	-4985
▁Rah	-4986
▁Sad	-4987
▁Saf	-4988
▁Sol	-4989
▁Söz	-4990
▁Var	-4991
▁Vay	-4992
▁Zig	-4993
▁aks	-4994
▁amc	-4995
▁buz	-4996
▁döş	-4997
▁dış	-4998
▁eli	-4999
▁gök	-5000
▁hur	-5001
▁hüz	-5002
▁kub	-5003
▁kus	-5004
▁lüt	-5005
▁nin	-5006
▁oğl	-5007
▁peş	-5008
▁piy	-5009
▁saz	-5010
▁sos	-5011
▁süp	-5012
▁sıv	-5013
▁taf	-5014
▁tay	-5015
▁tez	-5016
▁yel	-5017
▁yoğ	-5018
▁yut	-5019
▁Çan	-5020
▁Ömr	-5021
▁Üst	-5022
▁çap	-5023
▁çeş	-5024
▁Şey	-5025
▁şiv	-5026
▁şük	-5027
abile	-5028
artım	-5029
ağfir	-5030
ağıyı	-5031
bahar	-5032
essür	-5033
illet	-5034
imdik	-5035
kanlı	-5036
kundu	-5037
madın	-5038
malar	-5039
menin	-5040
ordan	-5041
oyvod	-5042
oğraf	-5043
seydi	-5044
tıyor	-5045
öhret	-5046
üccar	-5047
üdünü	-5048
ümkün	-5049
▁Akkâ	-5050
▁Anne	-5051
▁Bari	-5052
▁Cuma	-5053
▁Elli	-5054
▁Juli	-5055
▁Kahv	-5056
▁Kale	-5057
▁Kara	-5058
▁Otağ	-5059
▁Sahi	-5060
▁Yani	-5061
▁Yere	-5062
▁akan	-5063
▁asıl	-5064
▁avuç	-5065
▁açıl	-5066
▁bank	-5067
▁beyg	-5068
▁dinç	-5069
▁epey	-5070
▁hüly	-5071
▁idar	-5072
▁itir	-5073
▁karı	-5074
▁keçi	-5075
▁kuru	-5076
▁lafı	-5077
▁mazi	-5078
▁mızr	-5079
▁sarp	-5080
▁tarl	-5081
▁tavr	-5082
▁tekâ	-5083
▁tolg	-5084
▁umum	-5085
▁uyuş	-5086
▁uğul	-5087
▁yadi	-5088
▁yarı	-5089
▁yolu	-5090
▁âşık	-5091
▁ışık	-5092
▁Şark	-5093
akkale	-5094
asihat	-5095
ektrik	-5096
emezdi	-5097
emişti	-5098
imdeki	-5099
maları	-5100
muştum	-5101
perver	-5102
sından	-5103
tikten	-5104
utubet	-5105
ımdaki	-5106
▁Boğaz	-5107
▁Kalın	-5108
▁Karşı	-5109
▁Kasab	-5110
▁Lakin	-5111
▁Merak	-5112
▁Mısır	-5113
▁Nihat	-5114
▁Rumca	-5115
▁Saray	-5116
▁Tıpkı	-5117
▁Yunan	-5118
▁almaz	-5119
▁asilz	-5120
▁avazı	-5121
▁aydır	-5122
▁bağış	-5123
▁bilin	-5124
▁bulur	-5125
▁bunun	-5126
▁bölük	-5127
▁cümle	-5128
▁daldı	-5129
▁damar	-5130
▁dövüş	-5131
▁düzen	-5132
▁düşer	-5133
▁efsan	-5134
▁entar	-5135
▁geçin	-5136
▁giyin	-5137
▁görev	-5138
▁gözük	-5139
▁hacet	-5140
▁hâsıl	-5141
▁kalem	-5142
▁kalma	-5143
▁kamaş	-5144
▁kavuk	-5145
▁kesik	-5146
▁kimin	-5147
▁kızar	-5148
▁kızın	-5149
▁masal	-5150
▁mevki	-5151
▁milli	-5152
▁muhak	-5153
▁mübal	-5154
▁mükaf	-5155
▁neden	-5156
▁neler	-5157
▁odası	-5158
▁sende	-5159
▁sönük	-5160
▁sükun	-5161
▁süren	-5162
▁süslü	-5163
▁sıkıl	-5164
▁sınıf	-5165
▁sırma	-5166
▁sırrı	-5167
▁tabii	-5168
▁tavuk	-5169
▁vatan	-5170
▁yakal	-5171
▁yarat	-5172
▁yatağ	-5173
▁yolcu	-5174
▁yolda	-5175
▁zarif	-5176
▁Çalış	-5177
▁Çiroz	-5178
▁Çoban	-5179
▁çimen	-5180
▁çürük	-5181
▁öğüdü	-5182
acağımı	-5183
amadığı	-5184
bilecek	-5185
hanbeyi	-5186
iyesini	-5187
lerdeki	-5188
madığım	-5189
mayarak	-5190
meyerek	-5191
uyorsun	-5192
ımızdan	-5193
ırlardı	-5194
▁Hırist	-5195
▁Kapıya	-5196
▁Mahmut	-5197
▁Niyazi	-5198
▁Temmuz	-5199
▁Yukarı	-5200
▁akıllı	-5201
▁annesi	-5202
▁arkaya	-5203
▁askeri	-5204
▁başlay	-5205
▁benzet	-5206
▁berbat	-5207
▁canını	-5208
▁dediği	-5209
▁fırsat	-5210
▁girdim	-5211
▁gördün	-5212
▁gözlük	-5213
▁halkın	-5214
▁hayata	-5215
▁ikişer	-5216
▁insanı	-5217
▁kaldık	-5218
▁kaplan	-5219
▁korkak	-5220
▁mantık	-5221
▁meftun	-5222
▁menzil	-5223
▁namazı	-5224
▁olmalı	-5225
▁olması	-5226
▁olunca	-5227
▁olurdu	-5228
▁oturur	-5229
▁parası	-5230
▁paşaya	-5231
▁samimi	-5232
▁sersem	-5233
▁sevinc	-5234
▁sırada	-5235
▁takdim	-5236
▁titret	-5237
▁tuttum	-5238
▁uyandı	-5239
▁vahşet	-5240
▁yalvar	-5241
▁yanıma	-5242
▁yaprak	-5243
▁yaptın	-5244
▁yaşına	-5245
▁yoldaş	-5246
▁yüzüme	-5247
▁zahmet	-5248
▁zeytin	-5249
▁zulmet	-5250
▁çılgın	-5251
▁örtülü	-5252
▁Şiddet	-5253
abilirdi	-5254
aklarına	-5255
larınızı	-5256
lığından	-5257
▁Arnavut	-5258
▁Buyurun	-5259
▁Kendine	-5260
▁anasını	-5261
▁atların	-5262
▁bağırış	-5263
▁boynunu	-5264
▁cehalet	-5265
▁dağları	-5266
▁dediler	-5267
▁dönüyor	-5268
▁düşüyor	-5269
▁esvaplı	-5270
▁farkına	-5271
▁fırladı	-5272
▁gezmeye	-5273
▁güneşin	-5274
▁hizmetç	-5275
▁hümâyun	-5276
▁iftihar	-5277
▁iktisat	-5278
▁içtimaî	-5279
▁karışan	-5280
▁kethüdâ	-5281
▁kimseyi	-5282
▁kurumuş	-5283
▁muhacir	-5284
▁olmazsa	-5285
▁olsaydı	-5286
▁papazın	-5287
▁seninle	-5288
▁sözleri	-5289
▁tesadüf	-5290
▁tiyatro	-5291
▁yapayım	-5292
▁yaşayan	-5293
▁yerlere	-5294
▁çıkacak	-5295
▁ölmüştü	-5296
▁İhtimal	-5297
▁Şövalye	-5298
larımızın	-5299
larındaki	-5300
lerimizin	-5301
▁Askerler	-5302
▁alacağız	-5303
▁anlattım	-5304
▁aptallaş	-5305
▁ellerine	-5306
▁getirmek	-5307
▁geçtiler	-5308
▁gittiler	-5309
▁görürsün	-5310
▁hayatını	-5311
▁hayvanın	-5312
▁ihtimali	-5313
▁istersen	-5314
▁kalbinin	-5315
▁karısını	-5316
▁kasabaya	-5317
▁kimbilir	-5318
▁muhakkak	-5319
▁mustarip	-5320
▁tanesini	-5321
▁vurulmuş	-5322
▁yaldızlı	-5323
▁yanından	-5324
▁yürümeye	-5325
▁çarpmaya	-5326
▁çocuklar	-5327
▁üstünden	-5328
ağfirullah	-5329
▁Kendisini	-5330
▁Padişahım	-5331
▁ağaçların	-5332
▁ağlıyordu	-5333
▁bıraktığı	-5334
▁gidiyorum	-5335
▁hakikatte	-5336
▁kaybolmuş	-5337
▁kaşlarını	-5338
▁oldukları	-5339
▁sanılacak	-5340
▁tamamıyle	-5341
▁teklifini	-5342
▁Çanakkale	-5343
▁üzerinden	-5344
▁Bilmiyorum	-5345
▁Karşısında	-5346
▁arasındaki	-5347
▁ayaklarını	-5348
▁başlamıştı	-5349
▁bilmiyordu	-5350
▁dinliyordu	-5351
▁hatırlıyor	-5352
▁istiyorsun	-5353
▁oturuyordu	-5354
▁yapacaksın	-5355
▁işitiliyordu	-5356
▁söyleyeceğim	-5357
▁parmaklarıyla	-5358
▁söylediklerini	-5359
Ac	-5360
aa	-5361
gü	-5362
ku	-5363
va	-5364
îd	-5365
▁'	-5366
▁2	-5367
▁î	-5368
and	-5369
cit	-5370
ent	-5371
evk	-5372
fik	-5373
ikî	-5374
ims	-5375
iya	-5376
kça	-5377
lev	-5378
lüğ	-5379
nut	-5380
paz	-5381
rat	-5382
rem	-5383
rij	-5384
rit	-5385
rur	-5386
rut	-5387
rıs	-5388
sım	-5389
tük	-5390
uru	-5391
zat	-5392
übb	-5393
▁Ha	-5394
▁Tâ	-5395
▁Uş	-5396
▁ap	-5397
▁gı	-5398
▁va	-5399
▁şa	-5400
!.."	-5401
...»	-5402
abıy	-5403
adde	-5404
afer	-5405
akki	-5406
amet	-5407
avüz	-5408
ayıt	-5409
ağım	-5410
dadı	-5411
dağı	-5412
diye	-5413
eyan	-5414
irit	-5415
limi	-5416
osun	-5417
ralı	-5418
renç	-5419
sını	-5420
tane	-5421
ukat	-5422
ular	-5423
uluk	-5424
urlu	-5425
uver	-5426
vanı	-5427
âhut	-5428
ânın	-5429
ğımı	-5430
ılaş	-5431
ırız	-5432
▁Ara	-5433
▁Cep	-5434
▁Diş	-5435
▁Git	-5436
▁Gön	-5437
▁Haz	-5438
▁Kat	-5439
▁Kaz	-5440
▁Kum	-5441
▁Kuş	-5442
▁Muk	-5443
▁Müf	-5444
▁Sor	-5445
▁Sur	-5446
▁Tak	-5447
▁Viy	-5448
▁Yut	-5449
▁Yük	-5450
▁buç	-5451
▁dek	-5452
▁ebe	-5453
▁emn	-5454
▁fış	-5455
▁hic	-5456
▁hiz	-5457
▁hâl	-5458
▁inc	-5459
▁kef	-5460
▁lim	-5461
▁maş	-5462
▁nem	-5463
▁nâr	-5464
▁sop	-5465
▁söğ	-5466
▁tac	-5467
▁ted	-5468
▁tir	-5469
▁tuz	-5470
▁yiy	-5471
▁Çor	-5472
▁âli	-5473
▁çab	-5474
▁çan	-5475
▁İri	-5476
▁Şam	-5477
▁şan	-5478
▁şil	-5479
▁şim	-5480
Acaba	-5481
abına	-5482
anaat	-5483
andan	-5484
anmış	-5485
duğum	-5486
ediği	-5487
ekten	-5488
errür	-5489
etvar	-5490
imsiz	-5491
inize	-5492
lacağ	-5493
lamaz	-5494
leşti	-5495
liler	-5496
madık	-5497
makar	-5498
seden	-5499
tüler	-5500
üngür	-5501
ürken	-5502
üstah	-5503
ısını	-5504
ığını	-5505
▁Arab	-5506
▁Ayol	-5507
▁Grij	-5508
▁Kısa	-5509
▁Saat	-5510
▁Ulan	-5511
▁Uzat	-5512
▁Yüzü	-5513
▁alıp	-5514
▁ayda	-5515
▁ağac	-5516
▁bahs	-5517
▁cübb	-5518
▁darı	-5519
▁dağı	-5520
▁devr	-5521
▁gazi	-5522
▁hacı	-5523
▁hoca	-5524
▁ilim	-5525
▁ilâh	-5526
▁inen	-5527
▁kese	-5528
▁koyn	-5529
▁köle	-5530
▁neşe	-5531
▁orta	-5532
▁oyun	-5533
▁penç	-5534
▁sola	-5535
▁sıkı	-5536
▁tarz	-5537
▁tram	-5538
▁uçur	-5539
▁vaat	-5540
▁yele	-5541
▁ziya	-5542
▁ziyâ	-5543
▁zâbi	-5544
▁zümr	-5545
▁çare	-5546
▁öldü	-5547
▁üşüş	-5548
ediniz	-5549
elefon	-5550
landık	-5551
larken	-5552
lerken	-5553
mazlar	-5554
mezler	-5555
nettar	-5556
yalist	-5557
âsıyla	-5558
ğimizi	-5559
ınızda	-5560
ıyoruz	-5561
▁Canım	-5562
▁Dayan	-5563
▁Deniz	-5564
▁Hatır	-5565
▁Hızla	-5566
▁Kabul	-5567
▁Kasap	-5568
▁Pembe	-5569
▁Ramaz	-5570
▁Sekiz	-5571
▁Sizin	-5572
▁Yanın	-5573
▁Zayıf	-5574
▁aldan	-5575
▁asabi	-5576
▁atına	-5577
▁ayağı	-5578
▁balık	-5579
▁basit	-5580
▁bastı	-5581
▁başlı	-5582
▁beşer	-5583
▁boynu	-5584
▁buyur	-5585
▁devir	-5586
▁esvab	-5587
▁ettik	-5588
▁ettin	-5589
▁evini	-5590
▁evlat	-5591
▁ezeli	-5592
▁galip	-5593
▁gamlı	-5594
▁girer	-5595
▁gitme	-5596
▁göğüs	-5597
▁güler	-5598
▁gülle	-5599
▁havlu	-5600
▁ikisi	-5601
▁ikiye	-5602
▁inkâr	-5603
▁insaf	-5604
▁isyan	-5605
▁içmek	-5606
▁kabil	-5607
▁kapat	-5608
▁kaplı	-5609
▁karak	-5610
▁kavim	-5611
▁kaçan	-5612
▁kelim	-5613
▁kerim	-5614
▁kirli	-5615
▁kâbus	-5616
▁mebus	-5617
▁mefkû	-5618
▁millî	-5619
▁mıyız	-5620
▁nâdan	-5621
▁odada	-5622
▁oldun	-5623
▁ortak	-5624
▁sabır	-5625
▁sarih	-5626
▁savaş	-5627
▁seven	-5628
▁silin	-5629
▁soyun	-5630
▁taşın	-5631
▁topuz	-5632
▁torun	-5633
▁türbe	-5634
▁ucuna	-5635
▁uyudu	-5636
▁vuruş	-5637
▁yalın	-5638
▁yanan	-5639
▁yaşar	-5640
▁âlemi	-5641
▁ölüme	-5642
▁ölümü	-5643
▁ücret	-5644
▁şerif	-5645
▁şüphe	-5646
ayalnız	-5647
eceğini	-5648
mayayım	-5649
ıyordun	-5650
▁Akşama	-5651
▁Aradan	-5652
▁Azıcık	-5653
▁Babası	-5654
▁Balkan	-5655
▁Balkon	-5656
▁Başına	-5657
▁Büyücü	-5658
▁Elinde	-5659
▁Gördün	-5660
▁Gülter	-5661
▁Gündüz	-5662
▁Jandar	-5663
▁Koltuğ	-5664
▁Mektep	-5665
▁Mümkün	-5666
▁Onunla	-5667
▁Tahtın	-5668
▁Yanına	-5669
▁Yüksek	-5670
▁alarak	-5671
▁alayım	-5672
▁almaya	-5673
▁anneme	-5674
▁arslan	-5675
▁askere	-5676
▁atmaya	-5677
▁ağzıma	-5678
▁bağdaş	-5679
▁başımı	-5680
▁bizden	-5681
▁budala	-5682
▁bundan	-5683
▁dimdik	-5684
▁dinsiz	-5685
▁doksan	-5686
▁donmuş	-5687
▁döndüm	-5688
▁eskisi	-5689
▁eğildi	-5690
▁eğlenc	-5691
▁gitmiş	-5692
▁güldüm	-5693
▁hüngür	-5694
▁insana	-5695
▁içimde	-5696
▁kambur	-5697
▁kapıya	-5698
▁karyol	-5699
▁kasaba	-5700
▁kaymak	-5701
▁kendim	-5702
▁kocası	-5703
▁kokusu	-5704
▁koştum	-5705
▁kızlar	-5706
▁mandol	-5707
▁mektub	-5708
▁mesele	-5709
▁muharr	-5710
▁müddet	-5711
▁ocağın	-5712
▁palang	-5713
▁parayı	-5714
▁renkli	-5715
▁saatte	-5716
▁sedire	-5717
▁sustur	-5718
▁sıhhat	-5719
▁tafsil	-5720
▁uzakta	-5721
▁vermez	-5722
▁vermiş	-5723
▁voyvod	-5724
▁yollar	-5725
▁yolunu	-5726
▁yumruk	-5727
▁yüreği	-5728
▁yıldır	-5729
▁çığlık	-5730
▁şeytan	-5731
▁şöhret	-5732
amamıştı	-5733
emeyecek	-5734
iniyordu	-5735
larımızı	-5736
madığını	-5737
▁Avrupal	-5738
▁Grijgal	-5739
▁Hepsini	-5740
▁Hüseyin	-5741
▁Nereden	-5742
▁Yavaşça	-5743
▁alacağı	-5744
▁alevler	-5745
▁anladım	-5746
▁aramaya	-5747
▁askerin	-5748
▁ayrıldı	-5749
▁balkona	-5750
▁bağladı	-5751
▁benimle	-5752
▁birinin	-5753
▁bugünkü	-5754
▁bırakan	-5755
▁diyecek	-5756
▁diyerek	-5757
▁doğduğu	-5758
▁düşmanı	-5759
▁düşünce	-5760
▁esirler	-5761
▁geçtiği	-5762
▁göremez	-5763
▁görmedi	-5764
▁görmeye	-5765
▁hafifçe	-5766
▁hayatın	-5767
▁herkesi	-5768
▁istemez	-5769
▁işittik	-5770
▁kardeşi	-5771
▁karışık	-5772
▁karşıya	-5773
▁konuşur	-5774
▁kıyafet	-5775
▁mektebe	-5776
▁muazzam	-5777
▁muhafaz	-5778
▁nereden	-5779
▁oldukça	-5780
▁olunmaz	-5781
▁ordunun	-5782
▁rutubet	-5783
▁sallana	-5784
▁sarardı	-5785
▁seneden	-5786
▁sinirli	-5787
▁sokakta	-5788
▁sonunda	-5789
▁sürmedi	-5790
▁sıçradı	-5791
▁tecavüz	-5792
▁topladı	-5793
▁tutmaya	-5794
▁vaziyet	-5795
▁yerleri	-5796
▁yıkıldı	-5797
▁zehirli	-5798
▁çehresi	-5799
▁çiçekli	-5800
▁çıkmadı	-5801
▁öyleyse	-5802
▁öğüdünü	-5803
▁şimdiki	-5804
ediyordum	-5805
latıyordu	-5806
makarışık	-5807
mayacağım	-5808
▁Bilmiyor	-5809
▁Dışarıda	-5810
▁Kimbilir	-5811
▁Zigetvar	-5812
▁akıyordu	-5813
▁ağzından	-5814
▁cebinden	-5815
▁cevabını	-5816
▁dehşetle	-5817
▁deminden	-5818
▁dörtnala	-5819
▁dışarıda	-5820
▁elindeki	-5821
▁geçerken	-5822
▁gördüler	-5823
▁görmeyen	-5824
▁hakkında	-5825
▁hayretle	-5826
▁hükümdar	-5827
▁hıçkırık	-5828
▁insanlar	-5829
▁inşallah	-5830
▁mektepte	-5831
▁milliyet	-5832
▁mânâsını	-5833
▁otomobil	-5834
▁oturduğu	-5835
▁paraları	-5836
▁reddetti	-5837
▁sanatkâr	-5838
▁silahsız	-5839
▁titriyor	-5840
▁vezirler	-5841
▁yakından	-5842
▁yağmurun	-5843
▁çıktılar	-5844
amayacağım	-5845
liyorlardı	-5846
▁Gülümsedi	-5847
▁Padişahın	-5848
▁anlatayım	-5849
▁annesinin	-5850
▁bağırarak	-5851
▁buralarda	-5852
▁dinlerken	-5853
▁gelinceye	-5854
▁gidecekti	-5855
▁gideceğim	-5856
▁gölgeleri	-5857
▁gülmekten	-5858
▁güzelliği	-5859
▁haricinde	-5860
▁heyecanlı	-5861
▁kalıyordu	-5862
▁kapısında	-5863
▁kitapları	-5864
▁oluyordum	-5865
▁pencereye	-5866
▁saadetten	-5867
▁seslerini	-5868
▁sıkılıyor	-5869
▁tutamadım	-5870
▁yaptığını	-5871
▁zamanında	-5872
▁çıkardığı	-5873
▁akrabaları	-5874
▁biliyorsun	-5875
▁dayanamadı	-5876
▁gösterdiği	-5877
▁istediğini	-5878
▁konuşurken	-5879
▁kuvvetiyle	-5880
▁muharebeye	-5881
▁mırıldandı	-5882
▁söylüyorum	-5883
▁üzerindeki	-5884
▁Arkasındaki	-5885
▁dolaşıyordu	-5886
▁efendisinin	-5887
▁korkusundan	-5888
▁duruyorlardı	-5889
▁ehemmiyetsiz	-5890
▁gülümseyerek	-5891
▁karmakarışık	-5892
▁bekliyorlardı	-5893
?»	-5894
Le	-5895
gr	-5896
hr	-5897
lo	-5898
mu	-5899
rî	-5900
vi	-5901
zu	-5902
âd	-5903
ég	-5904
▁?	-5905
avv	-5906
büz	-5907
cen	-5908
cip	-5909
cır	-5910
evv	-5911
eyy	-5912
fak	-5913
guv	-5914
gâm	-5915
göz	-5916
hum	-5917
ira	-5918
ise	-5919
lin	-5920
lma	-5921
nir	-5922
ois	-5923
reg	-5924
rih	-5925
ski	-5926
taş	-5927
tih	-5928
tip	-5929
tör	-5930
umb	-5931
und	-5932
zev	-5933
âri	-5934
ült	-5935
ğum	-5936
ırı	-5937
şey	-5938
▁19	-5939
▁Gi	-5940
▁Ko	-5941
▁Ma	-5942
▁Sü	-5943
▁id	-5944
▁st	-5945
▁Ök	-5946
▁üf	-5947
...–	-5948
abuç	-5949
altı	-5950
amda	-5951
anda	-5952
anma	-5953
arıp	-5954
arız	-5955
atta	-5956
aval	-5957
açin	-5958
besi	-5959
cağı	-5960
ecik	-5961
eleş	-5962
etle	-5963
gane	-5964
hâne	-5965
idin	-5966
ileş	-5967
isin	-5968
iğit	-5969
lahi	-5970
lama	-5971
olar	-5972
omat	-5973
paşa	-5974
ulur	-5975
âbet	-5976
ârid	-5977
âzıl	-5978
üntü	-5979
ürün	-5980
üydü	-5981
ımla	-5982
şeri	-5983
▁Ces	-5984
▁Cez	-5985
▁Dem	-5986
▁Dub	-5987
▁Dış	-5988
▁Erk	-5989
▁Fak	-5990
▁Gar	-5991
▁Hob	-5992
▁Hoş	-5993
▁Hür	-5994
▁Kil	-5995
▁Mec	-5996
▁Mev	-5997
▁Mün	-5998
▁Neş	-5999
▁Rüy	-6000
▁Sah	-6001
▁Teb	-6002
▁Tel	-6003
▁Vur	-6004
▁Vüc	-6005
▁Yor	-6006
▁adı	-6007
▁ağr	-6008
▁dul	-6009
▁dég	-6010
▁ela	-6011
▁eşi	-6012
▁eşk	-6013
▁fal	-6014
▁far	-6015
▁gen	-6016
▁hil	-6017
▁imd	-6018
▁işe	-6019
▁lek	-6020
▁mâb	-6021
▁müz	-6022
▁nâm	-6023
▁pal	-6024
▁rağ	-6025
▁sez	-6026
▁sob	-6027
▁som	-6028
▁sun	-6029
▁yır	-6030
▁zin	-6031
▁ötü	-6032
▁İnc	-6033
▁şik	-6034
▁şos	-6035
azzez	-6036
dince	-6037
düncü	-6038
ekkir	-6039
eliği	-6040
endil	-6041
endum	-6042
erçev	-6043
etmiş	-6044
irsiz	-6045
iyâzi	-6046
sanın	-6047
sanız	-6048
ulmaz	-6049
umuzu	-6050
üphan	-6051
üşvet	-6052
ğinin	-6053
ğiniz	-6054
ınızı	-6055
ırcık	-6056
▁Ahır	-6057
▁Asla	-6058
▁Ağır	-6059
▁Bazı	-6060
▁Bizi	-6061
▁Cami	-6062
▁Elçi	-6063
▁Maym	-6064
▁Trab	-6065
▁Unut	-6066
▁Yedi	-6067
▁aksi	-6068
▁alık	-6069
▁anan	-6070
▁atın	-6071
▁ağam	-6072
▁ağrı	-6073
▁bağr	-6074
▁beyn	-6075
▁daml	-6076
▁dola	-6077
▁dâhi	-6078
▁elma	-6079
▁esas	-6080
▁eğer	-6081
▁feci	-6082
▁fund	-6083
▁gerç	-6084
▁gird	-6085
▁ihti	-6086
▁ikin	-6087
▁imam	-6088
▁ipti	-6089
▁irad	-6090
▁izin	-6091
▁kavî	-6092
▁kağı	-6093
▁köyl	-6094
▁köşe	-6095
▁mahv	-6096
▁marp	-6097
▁muht	-6098
▁mutl	-6099
▁neye	-6100
▁niye	-6101
▁ocak	-6102
▁odun	-6103
▁okut	-6104
▁otağ	-6105
▁sabr	-6106
▁sade	-6107
▁sağa	-6108
▁topu	-6109
▁türk	-6110
▁ufak	-6111
▁veda	-6112
▁yahu	-6113
▁yalv	-6114
▁yavr	-6115
▁yazı	-6116
▁üzül	-6117
abilir	-6118
amadık	-6119
aşasın	-6120
emeyen	-6121
ilayet	-6122
iliyor	-6123
isiyle	-6124
laşmış	-6125
luktan	-6126
mezsen	-6127
nundan	-6128
rettin	-6129
sıklam	-6130
sızlık	-6131
tiğini	-6132
tuğunu	-6133
tıktan	-6134
ununun	-6135
vallah	-6136
verrih	-6137
ıncaya	-6138
ınızın	-6139
▁Anlat	-6140
▁Atını	-6141
▁Bekçi	-6142
▁Durdu	-6143
▁Gümüş	-6144
▁Kitap	-6145
▁Kulak	-6146
▁Köpek	-6147
▁Madam	-6148
▁Muhar	-6149
▁Müftü	-6150
▁Orası	-6151
▁Sende	-6152
▁Tabiî	-6153
▁Temiz	-6154
▁Topal	-6155
▁Turan	-6156
▁Yatak	-6157
▁Yaver	-6158
▁Yoksa	-6159
▁Yolda	-6160
▁Zaman	-6161
▁ahlak	-6162
▁bende	-6163
▁bomba	-6164
▁bunak	-6165
▁buruş	-6166
▁ceviz	-6167
▁dayak	-6168
▁dağıt	-6169
▁derec	-6170
▁direk	-6171
▁doğan	-6172
▁durur	-6173
▁eşraf	-6174
▁gerin	-6175
▁grade	-6176
▁gözle	-6177
▁gülün	-6178
▁güver	-6179
▁halka	-6180
▁hamle	-6181
▁hazin	-6182
▁helal	-6183
▁hülya	-6184
▁hüzün	-6185
▁işken	-6186
▁iştir	-6187
▁kibar	-6188
▁kitab	-6189
▁konak	-6190
▁kulüb	-6191
▁kuman	-6192
▁kurdu	-6193
▁kızdı	-6194
▁latif	-6195
▁lâyık	-6196
▁mağlu	-6197
▁muhâs	-6198
▁mukab	-6199
▁odayı	-6200
▁oynar	-6201
▁pabuç	-6202
▁sahib	-6203
▁sakın	-6204
▁saran	-6205
▁seyir	-6206
▁soluk	-6207
▁sorar	-6208
▁susuz	-6209
▁sürat	-6210
▁taass	-6211
▁tanıy	-6212
▁temas	-6213
▁tutar	-6214
▁tutup	-6215
▁tıraş	-6216
▁umumî	-6217
▁velin	-6218
▁yapan	-6219
▁yaral	-6220
▁yaver	-6221
▁yavru	-6222
▁yağlı	-6223
▁yemiş	-6224
▁yudum	-6225
▁yırtı	-6226
▁Çabuk	-6227
▁çalar	-6228
▁çehre	-6229
▁çıkıp	-6230
▁çınar	-6231
▁ölmek	-6232
▁ümidi	-6233
▁şaşal	-6234
▁şeker	-6235
▁şekil	-6236
acaklar	-6237
acağına	-6238
dikleri	-6239
ecekler	-6240
endinin	-6241
eşekkür	-6242
iyorduk	-6243
lanıyor	-6244
malıyım	-6245
otoğraf	-6246
ırdılar	-6247
ırsınız	-6248
▁Başımı	-6249
▁Benden	-6250
▁Burcun	-6251
▁Dizdar	-6252
▁Dubois	-6253
▁Ferman	-6254
▁Hatice	-6255
▁Kaftan	-6256
▁Kaptan	-6257
▁Meşrut	-6258
▁Nafile	-6259
▁Niyâzi	-6260
▁Onları	-6261
▁Parlak	-6262
▁Perviz	-6263
▁Saadet	-6264
▁Viyana	-6265
▁Yaklaş	-6266
▁acıklı	-6267
▁akşama	-6268
▁alıyor	-6269
▁atının	-6270
▁bardak	-6271
▁beklen	-6272
▁beline	-6273
▁beygir	-6274
▁birine	-6275
▁bizzat	-6276
▁bulduk	-6277
▁burası	-6278
▁cebine	-6279
▁dağlar	-6280
▁destan	-6281
▁dikmiş	-6282
▁dirsek	-6283
▁dolgun	-6284
▁düşüne	-6285
▁gecesi	-6286
▁giymiş	-6287
▁gürbüz	-6288
▁hatıra	-6289
▁haydut	-6290
▁hayran	-6291
▁hemşir	-6292
▁hodgâm	-6293
▁hoşuma	-6294
▁hâsılı	-6295
▁itikat	-6296
▁iğrenç	-6297
▁kadına	-6298
▁kahkah	-6299
▁kaçmak	-6300
▁keseyi	-6301
▁kocaya	-6302
▁koltuk	-6303
▁kuşlar	-6304
▁köprüs	-6305
▁köşkün	-6306
▁küstah	-6307
▁kımıld	-6308
▁kızdır	-6309
▁lafını	-6310
▁lirayı	-6311
▁mahzuz	-6312
▁okudum	-6313
▁peynir	-6314
▁rağmen	-6315
▁sabahı	-6316
▁sancak	-6317
▁tebess	-6318
▁tenezz	-6319
▁terlik	-6320
▁toplar	-6321
▁tutmak	-6322
▁tutmuş	-6323
▁uyanık	-6324
▁yakıcı	-6325
▁yardım	-6326
▁yaşlar	-6327
▁yemeği	-6328
▁yokken	-6329
▁yumurt	-6330
▁yüzümü	-6331
▁zincir	-6332
▁zindan	-6333
▁çarptı	-6334
▁çerçev	-6335
▁öpmeye	-6336
▁İkinci	-6337
alarımız	-6338
lıyordum	-6339
ordanski	-6340
ıldığını	-6341
▁Başında	-6342
▁Biliyor	-6343
▁Bunlara	-6344
▁Dediler	-6345
▁Düşündü	-6346
▁Hemşeri	-6347
▁Kapının	-6348
▁Kendini	-6349
▁Kendisi	-6350
▁Kraliçe	-6351
▁Mademki	-6352
▁Muazzez	-6353
▁Mülazım	-6354
▁anlamak	-6355
▁arabaya	-6356
▁atladım	-6357
▁ağırlık	-6358
▁aşağıya	-6359
▁bildiği	-6360
▁bitirdi	-6361
▁bombayı	-6362
▁bunlara	-6363
▁cephâne	-6364
▁dağınık	-6365
▁demekti	-6366
▁demişti	-6367
▁değilim	-6368
▁dolaştı	-6369
▁dégrade	-6370
▁dönerek	-6371
▁dünyayı	-6372
▁ejderha	-6373
▁ekşitti	-6374
▁eskiden	-6375
▁etmeden	-6376
▁gelmeye	-6377
▁getiren	-6378
▁gidecek	-6379
▁giriyor	-6380
▁gölgeli	-6381
▁göstere	-6382
▁güzeldi	-6383
▁harikul	-6384
▁herifin	-6385
▁herkese	-6386
▁intikal	-6387
▁izdivaç	-6388
▁kadındı	-6389
▁karnına	-6390
▁katiyen	-6391
▁kestane	-6392
▁kuvveti	-6393
▁köyünün	-6394
▁lazımdı	-6395
▁muvafık	-6396
▁oğuştur	-6397
▁salonun	-6398
▁sobanın	-6399
▁tavsiye	-6400
▁taşları	-6401
▁taşıyan	-6402
▁teessür	-6403
▁tepeden	-6404
▁tutarak	-6405
▁vererek	-6406
▁verilen	-6407
▁yakalan	-6408
▁yatıyor	-6409
▁ziyaret	-6410
▁çekiyor	-6411
▁çektiği	-6412
▁çıkarır	-6413
avallının	-6414
dırıyordu	-6415
lıklarını	-6416
ıyorsunuz	-6417
▁Cevabını	-6418
▁Hizmetçi	-6419
▁Karanlık	-6420
▁Pehlivan	-6421
▁Teşekkür	-6422
▁Yeniçeri	-6423
▁Yutkundu	-6424
▁ahlâksız	-6425
▁arabalar	-6426
▁başlamış	-6427
▁başlıyor	-6428
▁belirsiz	-6429
▁birisine	-6430
▁derlerdi	-6431
▁diyorsun	-6432
▁duymuyor	-6433
▁dönmüştü	-6434
▁düşmanın	-6435
▁efendisi	-6436
▁elektrik	-6437
▁erkekler	-6438
▁fikirler	-6439
▁gelmeden	-6440
▁getirmiş	-6441
▁gitmişti	-6442
▁görmemiş	-6443
▁görmüştü	-6444
▁haysiyet	-6445
▁hisseder	-6446
▁hürriyet	-6447
▁istemedi	-6448
▁kalabalı	-6449
▁kalkınca	-6450
▁kalkıyor	-6451
▁kesilmiş	-6452
▁kocasına	-6453
▁kokuları	-6454
▁koştular	-6455
▁meydanda	-6456
▁muallimi	-6457
▁muhakeme	-6458
▁müsterih	-6459
▁namazını	-6460
▁oturuyor	-6461
▁sadrazam	-6462
▁sebepsiz	-6463
▁sevdiğim	-6464
▁sevgilim	-6465
▁sıkıştır	-6466
▁tabiatın	-6467
▁tarihini	-6468
▁tekerrür	-6469
▁tutuştur	-6470
▁vakitler	-6471
▁vaktiyle	-6472
▁vermişti	-6473
▁yataktan	-6474
▁yazılmış	-6475
▁yaşınday	-6476
▁yuvarlak	-6477
▁yüzlerce	-6478
▁yıkılmış	-6479
▁çevirdim	-6480
▁öldürmek	-6481
▁İnşallah	-6482
▁şiddetli	-6483
▁Acemistan	-6484
▁Buyurunuz	-6485
▁Delikanlı	-6486
▁Karısının	-6487
▁Pencereye	-6488
▁Yanındaki	-6489
▁adımlarla	-6490
▁arıyorsun	-6491
▁aydınlığı	-6492
▁başındaki	-6493
▁birbirini	-6494
▁dişlerini	-6495
▁duvarları	-6496
▁duyuyordu	-6497
▁edeceksin	-6498
▁ellerinin	-6499
▁gevezelik	-6500
▁gitmiştim	-6501
▁gördüğünü	-6502
▁görünüyor	-6503
▁gözlerine	-6504
▁gürültüsü	-6505
▁istirahat	-6506
▁kollarını	-6507
▁konuşuyor	-6508
▁kuvvetini	-6509
▁memlekete	-6510
▁minnettar	-6511
▁müteessir	-6512
▁okşayarak	-6513
▁olacağını	-6514
▁olmayacak	-6515
▁sağındaki	-6516
▁silahları	-6517
▁sosyalist	-6518
▁tepesinde	-6519
▁uyuyamadı	-6520
▁uzaklaştı	-6521
▁veteriner	-6522
▁yazıyordu	-6523
▁yaşıyordu	-6524
▁yürüdüler	-6525
▁Hıristiyan	-6526
▁Pencerenin	-6527
▁bakıştılar	-6528
▁bayrakları	-6529
▁bilmiyorum	-6530
▁gelmemişti	-6531
▁görmemişti	-6532
▁gözyaşları	-6533
▁kaftanının	-6534
▁karanlıkta	-6535
▁karanlığın	-6536
▁patlayacak	-6537
▁sabahleyin	-6538
▁sandalyeye	-6539
▁soğukkanlı	-6540
▁voyvodalar	-6541
▁yapayalnız	-6542
▁yuvarlandı	-6543
▁çıkardılar	-6544
▁Hobordanski	-6545
▁bedenlerden	-6546
▁bulunduğunu	-6547
▁hiddetlendi	-6548
▁kumandanına	-6549
▁ortasındaki	-6550
▁arkadaşlarım	-6551
▁birbirlerini	-6552
▁düşünüyordum	-6553
▁görünmüyordu	-6554
▁gösteriyordu	-6555
▁söyleniyordu	-6556
▁çırpınıyordu	-6557
▁Avrupalıların	-6558
▁birbirlerinin	-6559
▁münasebetsizlik	-6560
!!	-6561
Ak	-6562
lî	-6563
nâ	-6564
po	-6565
âş	-6566
ûş	-6567
.."	-6568
Biz	-6569
abî	-6570
ast	-6571
azî	-6572
bas	-6573
bih	-6574
bim	-6575
cal	-6576
cım	-6577
dey	-6578
dül	-6579
eda	-6580
eko	-6581
ezl	-6582
hay	-6583
hir	-6584
iha	-6585
kas	-6586
kûm	-6587
lus	-6588
mar	-6589
ona	-6590
ont	-6591
pat	-6592
por	-6593
res	-6594
ris	-6595
sta	-6596
uha	-6597
ydi	-6598
üle	-6599
ğıt	-6600
şap	-6601
▁ga	-6602
▁âb	-6603
▁âr	-6604
▁İk	-6605
▁İm	-6606
Evet	-6607
Heya	-6608
Türk	-6609
abet	-6610
akal	-6611
amuk	-6612
anik	-6613
asöz	-6614
avem	-6615
ayçe	-6616
ciği	-6617
dini	-6618
duka	-6619
edin	-6620
edîd	-6621
ekşe	-6622
erim	-6623
esif	-6624
esna	-6625
etin	-6626
etti	-6627
garı	-6628
imli	-6629
iram	-6630
irse	-6631
itah	-6632
kesi	-6633
kunu	-6634
lüğe	-6635
lüğü	-6636
main	-6637
nunu	-6638
olon	-6639
osna	-6640
pany	-6641
tmek	-6642
ucak	-6643
usuz	-6644
âmet	-6645
âvet	-6646
ürüz	-6647
ğime	-6648
ımar	-6649
ıtır	-6650
ızın	-6651
▁!..	-6652
▁Acı	-6653
▁Bas	-6654
▁Bom	-6655
▁Boş	-6656
▁Dör	-6657
▁Dük	-6658
▁Düğ	-6659
▁Ede	-6660
▁Elç	-6661
▁Est	-6662
▁Maz	-6663
▁Mem	-6664
▁Mih	-6665
▁Ruh	-6666
▁ahb	-6667
▁ani	-6668
▁ara	-6669
▁arş	-6670
▁ata	-6671
▁bac	-6672
▁caz	-6673
▁dua	-6674
▁dör	-6675
▁est	-6676
▁eği	-6677
▁fab	-6678
▁fec	-6679
▁gaş	-6680
▁gem	-6681
▁giz	-6682
▁haç	-6683
▁hev	-6684
▁hop	-6685
▁hul	-6686
▁hâr	-6687
▁kak	-6688
▁kun	-6689
▁kuz	-6690
▁kıt	-6691
▁lan	-6692
▁let	-6693
▁lok	-6694
▁mav	-6695
▁mel	-6696
▁mum	-6697
▁mâî	-6698
▁müf	-6699
▁müj	-6700
▁nas	-6701
▁ney	-6702
▁omz	-6703
▁pap	-6704
▁pay	-6705
▁paç	-6706
▁pin	-6707
▁sur	-6708
▁sün	-6709
▁tal	-6710
▁tül	-6711
▁vat	-6712
▁Çes	-6713
▁çem	-6714
▁çen	-6715
▁çol	-6716
▁çöl	-6717
▁öne	-6718
▁şif	-6719
Niçin	-6720
ababa	-6721
acaat	-6722
adına	-6723
adını	-6724
ahtar	-6725
aleli	-6726
arttı	-6727
aydım	-6728
barek	-6729
bildi	-6730
derim	-6731
deyim	-6732
diyet	-6733
diyor	-6734
dukça	-6735
dükçe	-6736
dıkça	-6737
elezz	-6738
endes	-6739
enler	-6740
ethün	-6741
ezlon	-6742
eğine	-6743
iliği	-6744
inler	-6745
iyyen	-6746
kelet	-6747
kiler	-6748
kinin	-6749
kılıç	-6750
lukla	-6751
lıydı	-6752
meler	-6753
sizce	-6754
uysuz	-6755
ılcım	-6756
ırdır	-6757
▁Adam	-6758
▁Ateş	-6759
▁Açtı	-6760
▁Ağaç	-6761
▁Dreg	-6762
▁Eşek	-6763
▁Hakk	-6764
▁Hind	-6765
▁Karı	-6766
▁Köşk	-6767
▁Kılı	-6768
▁Pren	-6769
▁Rica	-6770
▁Roma	-6771
▁Voyv	-6772
▁Zira	-6773
▁adem	-6774
▁akın	-6775
▁ayın	-6776
▁açar	-6777
▁aşçı	-6778
▁bina	-6779
▁borç	-6780
▁boya	-6781
▁buse	-6782
▁büyü	-6783
▁ecin	-6784
▁edip	-6785
▁emek	-6786
▁eğri	-6787
▁harf	-6788
▁hâdi	-6789
▁ilan	-6790
▁iner	-6791
▁itim	-6792
▁işim	-6793
▁kaşı	-6794
▁koşa	-6795
▁kuzu	-6796
▁kâfi	-6797
▁kırp	-6798
▁kısm	-6799
▁mani	-6800
▁mart	-6801
▁meht	-6802
▁meth	-6803
▁neft	-6804
▁okul	-6805
▁sahî	-6806
▁seri	-6807
▁sevd	-6808
▁sevk	-6809
▁sims	-6810
▁sofu	-6811
▁spor	-6812
▁stat	-6813
▁suya	-6814
▁suyu	-6815
▁tarh	-6816
▁tayy	-6817
▁tefe	-6818
▁topa	-6819
▁ucuz	-6820
▁utan	-6821
▁uyuk	-6822
▁vahş	-6823
▁yara	-6824
▁yayl	-6825
▁Çift	-6826
▁çatı	-6827
▁çevr	-6828
▁önem	-6829
▁Şair	-6830
▁Şeri	-6831
▁şapk	-6832
▁şark	-6833
▁şimş	-6834
▁şişe	-6835
azamın	-6836
cakarı	-6837
edonya	-6838
eyince	-6839
guvanî	-6840
hanbey	-6841
inçten	-6842
leyman	-6843
liğimi	-6844
luklar	-6845
luğuna	-6846
masına	-6847
uluyor	-6848
âdeler	-6849
ıyanet	-6850
▁Ahmed	-6851
▁Aleko	-6852
▁Ancak	-6853
▁Bahar	-6854
▁Bakın	-6855
▁Bosna	-6856
▁Cigar	-6857
▁Eline	-6858
▁Gelin	-6859
▁Gerin	-6860
▁Gizli	-6861
▁Güldü	-6862
▁Hafif	-6863
▁Henüz	-6864
▁Hindi	-6865
▁Huzur	-6866
▁Karan	-6867
▁Karnı	-6868
▁Konak	-6869
▁Koyun	-6870
▁Mektu	-6871
▁Memiş	-6872
▁Nefes	-6873
▁Neşet	-6874
▁Nişan	-6875
▁Soğuk	-6876
▁Tabii	-6877
▁Tamam	-6878
▁Tavuk	-6879
▁Yeşil	-6880
▁Yürük	-6881
▁acıdı	-6882
▁affet	-6883
▁ahşap	-6884
▁akset	-6885
▁aldık	-6886
▁atmak	-6887
▁bakıp	-6888
▁bitti	-6889
▁boğuk	-6890
▁budur	-6891
▁bulan	-6892
▁burnu	-6893
▁burun	-6894
▁buçuk	-6895
▁böcek	-6896
▁cıvıl	-6897
▁dalar	-6898
▁damla	-6899
▁davul	-6900
▁demiş	-6901
▁doldu	-6902
▁doğur	-6903
▁dönen	-6904
▁düğün	-6905
▁ebedî	-6906
▁ekşit	-6907
▁elime	-6908
▁ezber	-6909
▁fiyat	-6910
▁garez	-6911
▁gazin	-6912
▁gezin	-6913
▁giydi	-6914
▁gömle	-6915
▁gönül	-6916
▁gülen	-6917
▁günün	-6918
▁halis	-6919
▁hasır	-6920
▁hattâ	-6921
▁hediy	-6922
▁hudut	-6923
▁idare	-6924
▁iddia	-6925
▁idrak	-6926
▁ihtil	-6927
▁işini	-6928
▁karib	-6929
▁kayan	-6930
▁kaçış	-6931
▁keten	-6932
▁koptu	-6933
▁köşke	-6934
▁köşkü	-6935
▁kürek	-6936
▁kışın	-6937
▁makin	-6938
▁manda	-6939
▁meras	-6940
▁mevzu	-6941
▁meşum	-6942
▁midir	-6943
▁minar	-6944
▁mösyö	-6945
▁peres	-6946
▁peşin	-6947
▁postu	-6948
▁potur	-6949
▁prens	-6950
▁pırıl	-6951
▁rahle	-6952
▁rehin	-6953
▁revol	-6954
▁saati	-6955
▁sahif	-6956
▁sahte	-6957
▁savur	-6958
▁sebeb	-6959
▁sefil	-6960
▁serap	-6961
▁sinem	-6962
▁söğüt	-6963
▁sükût	-6964
▁süpür	-6965
▁taban	-6966
▁tayin	-6967
▁tepsi	-6968
▁testi	-6969
▁topal	-6970
▁topun	-6971
▁topçu	-6972
▁tozlu	-6973
▁tuğlu	-6974
▁verin	-6975
▁viran	-6976
▁yaktı	-6977
▁yanık	-6978
▁yapıp	-6979
▁yapış	-6980
▁yarar	-6981
▁yatır	-6982
▁yüzük	-6983
▁yılan	-6984
▁zabit	-6985
▁zafer	-6986
▁zanne	-6987
▁zaptı	-6988
▁çalın	-6989
▁çattı	-6990
▁çeken	-6991
▁çekin	-6992
▁çekiş	-6993
▁çevik	-6994
▁ölüsü	-6995
▁Şehir	-6996
▁şahit	-6997
acakmış	-6998
acaksın	-6999
anların	-7000
antolon	-7001
ecektim	-7002
inizden	-7003
lerimle	-7004
liğinin	-7005
liğiyle	-7006
luyordu	-7007
lığının	-7008
mediniz	-7009
tıyordu	-7010
ularını	-7011
urullah	-7012
üyorlar	-7013
ırlarca	-7014
▁Abdest	-7015
▁Arapça	-7016
▁Atının	-7017
▁Ağzını	-7018
▁Baktım	-7019
▁Birçok	-7020
▁Cephan	-7021
▁Elleri	-7022
▁Halkın	-7023
▁Haydut	-7024
▁Hayret	-7025
▁Hıçkır	-7026
▁Kendim	-7027
▁Marten	-7028
▁Meydan	-7029
▁Ocağın	-7030
▁Palang	-7031
▁Semiha	-7032
▁Senden	-7033
▁Senede	-7034
▁Vücudu	-7035
▁Yanıma	-7036
▁Yatağa	-7037
▁Yerden	-7038
▁Yüzüme	-7039
▁Zengin	-7040
▁aklıma	-7041
▁alınan	-7042
▁alınca	-7043
▁attığı	-7044
▁baygın	-7045
▁bağrış	-7046
▁başıma	-7047
▁bostan	-7048
▁cambaz	-7049
▁cansız	-7050
▁cellat	-7051
▁cemaat	-7052
▁dalmış	-7053
▁derken	-7054
▁durmak	-7055
▁duydum	-7056
▁efsane	-7057
▁elbise	-7058
▁elimle	-7059
▁elçisi	-7060
▁epeyce	-7061
▁etrafı	-7062
▁gaflet	-7063
▁geldin	-7064
▁geleni	-7065
▁gelsin	-7066
▁gençti	-7067
▁gezdir	-7068
▁gezmek	-7069
▁gitmez	-7070
▁görmez	-7071
▁gözüne	-7072
▁günden	-7073
▁günler	-7074
▁günlük	-7075
▁hoşuna	-7076
▁hususî	-7077
▁idiler	-7078
▁inledi	-7079
▁itibar	-7080
▁itiraz	-7081
▁kanlar	-7082
▁kararı	-7083
▁kervan	-7084
▁kestir	-7085
▁korkar	-7086
▁korkma	-7087
▁kumand	-7088
▁kurnaz	-7089
▁köyüne	-7090
▁köşede	-7091
▁kıskan	-7092
▁mahmur	-7093
▁manevi	-7094
▁masaya	-7095
▁mağrur	-7096
▁müsrif	-7097
▁nafile	-7098
▁nurdan	-7099
▁okuyan	-7100
▁okşadı	-7101
▁olunan	-7102
▁pişman	-7103
▁ruhanî	-7104
▁sabaha	-7105
▁sahife	-7106
▁seksen	-7107
▁seyrek	-7108
▁sizden	-7109
▁tasdik	-7110
▁taşlar	-7111
▁tebrik	-7112
▁tekbir	-7113
▁tembel	-7114
▁terler	-7115
▁topçub	-7116
▁tuttuk	-7117
▁tüccar	-7118
▁tırnak	-7119
▁ufacık	-7120
▁ufaklı	-7121
▁uyumuş	-7122
▁uzandı	-7123
▁vesile	-7124
▁yabanc	-7125
▁yapmış	-7126
▁yapsın	-7127
▁yarısı	-7128
▁yemeye	-7129
▁yerleş	-7130
▁yokuşu	-7131
▁yoldan	-7132
▁yoluna	-7133
▁zümrüt	-7134
▁Çesban	-7135
▁çektim	-7136
▁çember	-7137
▁îtikat	-7138
▁ölecek	-7139
▁üzüntü	-7140
▁Şaşkın	-7141
........	-7142
esindeki	-7143
ilecekti	-7144
lerinizi	-7145
liğinden	-7146
miyordum	-7147
▁Annemin	-7148
▁Babamın	-7149
▁Beyoğlu	-7150
▁Buradan	-7151
▁Dregley	-7152
▁Gülerek	-7153
▁Hepimiz	-7154
▁Kırmızı	-7155
▁Selanik	-7156
▁Telgraf	-7157
▁Voyvoda	-7158
▁Yanında	-7159
▁aldılar	-7160
▁atından	-7161
▁açılmış	-7162
▁bakışla	-7163
▁bilirim	-7164
▁billahi	-7165
▁bozuldu	-7166
▁bulacak	-7167
▁bulamaz	-7168
▁bulunur	-7169
▁buruşuk	-7170
▁büyümüş	-7171
▁dalgası	-7172
▁deminki	-7173
▁denilen	-7174
▁değişti	-7175
▁dişleri	-7176
▁dokundu	-7177
▁doğacak	-7178
▁dururdu	-7179
▁duyduğu	-7180
▁duyunca	-7181
▁düşünen	-7182
▁emirler	-7183
▁emniyet	-7184
▁emretti	-7185
▁emriyle	-7186
▁etmiyor	-7187
▁evlerin	-7188
▁fısıltı	-7189
▁gecelik	-7190
▁gecenin	-7191
▁gelirim	-7192
▁gelmedi	-7193
▁geçmedi	-7194
▁götürül	-7195
▁gülmeye	-7196
▁hakkını	-7197
▁havadis	-7198
▁hayvanı	-7199
▁hayırlı	-7200
▁hocanın	-7201
▁ihtiram	-7202
▁ileriye	-7203
▁inanmaz	-7204
▁inerken	-7205
▁insanın	-7206
▁işittim	-7207
▁jandarm	-7208
▁kabarık	-7209
▁kapandı	-7210
▁karardı	-7211
▁karıştı	-7212
▁karşıma	-7213
▁koşarak	-7214
▁köpeğim	-7215
▁kızları	-7216
▁lakırdı	-7217
▁liralık	-7218
▁lisanla	-7219
▁manzara	-7220
▁mehâbet	-7221
▁mertlik	-7222
▁milleti	-7223
▁muazzez	-7224
▁mukavem	-7225
▁mübarek	-7226
▁mükafat	-7227
▁mülazım	-7228
▁münakaş	-7229
▁müşteri	-7230
▁mısınız	-7231
▁nasihat	-7232
▁nasılsa	-7233
▁olanlar	-7234
▁olduğum	-7235
▁palabıy	-7236
▁saadeti	-7237
▁saatten	-7238
▁sadakat	-7239
▁sanırım	-7240
▁sedirin	-7241
▁severdi	-7242
▁sevimli	-7243
▁tavırla	-7244
▁terbiye	-7245
▁topları	-7246
▁tırnağa	-7247
▁uğramış	-7248
▁verirdi	-7249
▁veririm	-7250
▁vermeye	-7251
▁vilayet	-7252
▁yakında	-7253
▁yaparak	-7254
▁yarabbi	-7255
▁yaralan	-7256
▁yaşardı	-7257
▁zâbitin	-7258
▁Ölümden	-7259
▁çabucak	-7260
▁çadırın	-7261
▁çakmağı	-7262
▁çalışan	-7263
▁çamaşır	-7264
▁çekilip	-7265
▁çiftlik	-7266
▁çocuğum	-7267
▁çocuğun	-7268
▁çıkalım	-7269
▁çıkarız	-7270
▁çıkmaya	-7271
▁çıkıyor	-7272
▁şiirler	-7273
▁şuursuz	-7274
acaksınız	-7275
amazsınız	-7276
emiyordum	-7277
tırıyordu	-7278
▁Arkasına	-7279
▁Binlerce	-7280
▁Dikkatle	-7281
▁Dördüncü	-7282
▁Herkesin	-7283
▁Karababa	-7284
▁Merdiven	-7285
▁Sabahtan	-7286
▁Süleyman	-7287
▁Yemekten	-7288
▁adamları	-7289
▁arkasını	-7290
▁ağaçları	-7291
▁başından	-7292
▁buldular	-7293
▁bulunmaz	-7294
▁bulutlar	-7295
▁cümlenin	-7296
▁dalmıştı	-7297
▁diyetini	-7298
▁dolduran	-7299
▁dolmuştu	-7300
▁doğmadan	-7301
▁dökülmüş	-7302
▁düşündüm	-7303
▁edeceğiz	-7304
▁edemiyor	-7305
▁efendiyi	-7306
▁evlerine	-7307
▁fotoğraf	-7308
▁gelirken	-7309
▁görmeden	-7310
▁görmedim	-7311
▁görmemek	-7312
▁gözlerle	-7313
▁günahkâr	-7314
▁haftadır	-7315
▁haftalar	-7316
▁hastalık	-7317
▁havlıyor	-7318
▁huzuruna	-7319
▁ikisinin	-7320
▁istifade	-7321
▁işitiyor	-7322
▁kabahati	-7323
▁kabarttı	-7324
▁kayboldu	-7325
▁kazanmak	-7326
▁kaşağıyı	-7327
▁korkudan	-7328
▁koydular	-7329
▁kucağıma	-7330
▁kılıcını	-7331
▁kıvılcım	-7332
▁kıvırcık	-7333
▁levhalar	-7334
▁mandolin	-7335
▁muharrik	-7336
▁mukabele	-7337
▁münakaşa	-7338
▁müstesna	-7339
▁nâraları	-7340
▁omuzları	-7341
▁oturarak	-7342
▁sabahtan	-7343
▁sabırsız	-7344
▁sallıyor	-7345
▁sararmış	-7346
▁sarılmış	-7347
▁sevinçli	-7348
▁simsiyah	-7349
▁suratını	-7350
▁söylemek	-7351
▁uzaklara	-7352
▁vakitten	-7353
▁vermeden	-7354
▁vermedim	-7355
▁yemekten	-7356
▁yukarıya	-7357
▁zâbitler	-7358
▁çektiler	-7359
▁ölecekti	-7360
▁örtülmüş	-7361
▁şimdiden	-7362
bileceğini	-7363
luyorlardı	-7364
meyeceksin	-7365
▁Hindistan	-7366
▁Kalktılar	-7367
▁Konuşmaya	-7368
▁Makedonya	-7369
▁Saatlerce	-7370
▁Sadrettin	-7371
▁ağlayarak	-7372
▁başlarını	-7373
▁biliyorum	-7374
▁bilmediği	-7375
▁bulamadım	-7376
▁dizlerine	-7377
▁duvarlara	-7378
▁etmediler	-7379
▁eğleniyor	-7380
▁gelmesini	-7381
▁gerçekten	-7382
▁gündüzden	-7383
▁hayalinde	-7384
▁hayvanlar	-7385
▁hissettim	-7386
▁huzurunda	-7387
▁inanamadı	-7388
▁kabarıyor	-7389
▁karışıyor	-7390
▁kasabanın	-7391
▁katılıyor	-7392
▁konuşmaya	-7393
▁koyunları	-7394
▁kumandana	-7395
▁kuyruğunu	-7396
▁kıymettar	-7397
▁milletine	-7398
▁otururken	-7399
▁parmaklık	-7400
▁rutubetli	-7401
▁sanıyordu	-7402
▁sipâhîler	-7403
▁soruyordu	-7404
▁söylediği	-7405
▁söylemedi	-7406
▁tutuyordu	-7407
▁vereceğim	-7408
▁zâbitleri	-7409
▁çıkararak	-7410
amayacağını	-7411
▁Arkasından	-7412
▁Gözlerinin	-7413
▁Kumandanın	-7414
▁ayaklarına	-7415
▁bakıyorlar	-7416
▁biliyordum	-7417
▁erkeklerin	-7418
▁geçiyordum	-7419
▁gülümsedim	-7420
▁hikâyesini	-7421
▁kaldırarak	-7422
▁kendisinin	-7423
▁meydanında	-7424
▁nihayetine	-7425
▁sallayarak	-7426
▁söyleyerek	-7427
▁yapıyorsun	-7428
▁çalışırken	-7429
▁çarpıyordu	-7430
▁Şövalyeler	-7431
▁şaşırdılar	-7432
▁Ayaklarının	-7433
▁bilmediğini	-7434
▁edemiyordum	-7435
▁güzelliğini	-7436
▁ilerliyordu	-7437
▁istemiyordu	-7438
▁kendilerine	-7439
▁konuşuyordu	-7440
▁kulaklarına	-7441
▁milyonlarca	-7442
▁sokaklardan	-7443
▁toplandılar	-7444
▁Birbirlerine	-7445
▁hatırlayarak	-7446
▁yaklaşıyordu	-7447
▁dalgalanıyordu	-7448
▁konuştuklarını	-7449
Ar	-7450
bâ	-7451
ge	-7452
gı	-7453
nî	-7454
pu	-7455
qu	-7456
vî	-7457
zi	-7458
âg	-7459
ûf	-7460
üv	-7461
ıa	-7462
▁(	-7463
Bey	-7464
aal	-7465
acc	-7466
aci	-7467
afa	-7468
apı	-7469
arr	-7470
bın	-7471
can	-7472
cem	-7473
cih	-7474
dev	-7475
enn	-7476
ert	-7477
evî	-7478
eze	-7479
gin	-7480
has	-7481
her	-7482
hân	-7483
ido	-7484
ina	-7485
itn	-7486
köy	-7487
kül	-7488
lâl	-7489
lıy	-7490
mes	-7491
mız	-7492
nam	-7493
nek	-7494
ort	-7495
pet	-7496
pik	-7497
riz	-7498
sar	-7499
tem	-7500
tib	-7501
uda	-7502
ven	-7503
vuz	-7504
vân	-7505
yar	-7506
yic	-7507
yim	-7508
zad	-7509
âhi	-7510
âir	-7511
âra	-7512
âyı	-7513
üğe	-7514
ğüm	-7515
▁Ad	-7516
▁Ek	-7517
▁Em	-7518
▁Oy	-7519
▁Ye	-7520
▁fi	-7521
▁lâ	-7522
▁ov	-7523
▁ri	-7524
▁uş	-7525
▁vs	-7526
▁ır	-7527
▁şo	-7528
..!"	-7529
abın	-7530
adir	-7531
akis	-7532
alif	-7533
amla	-7534
amür	-7535
anne	-7536
avet	-7537
ayiş	-7538
ağme	-7539
beli	-7540
bolu	-7541
cağa	-7542
dunu	-7543
edik	-7544
edim	-7545
ekat	-7546
ekil	-7547
emde	-7548
emiz	-7549
enge	-7550
erde	-7551
erez	-7552
ette	-7553
eyip	-7554
eşke	-7555
faat	-7556
gram	-7557
inat	-7558
kanı	-7559
keli	-7560
kodu	-7561
luğa	-7562
mamı	-7563
mana	-7564
oken	-7565
omet	-7566
onun	-7567
ospo	-7568
pido	-7569
plar	-7570
rail	-7571
sili	-7572
sünü	-7573
sına	-7574
tahı	-7575
tarı	-7576
tısı	-7577
uduz	-7578
ukur	-7579
uzuh	-7580
âdet	-7581
âlûd	-7582
âmül	-7583
ücük	-7584
ülük	-7585
ümün	-7586
üncü	-7587
ütbe	-7588
ıdan	-7589
ımış	-7590
ınır	-7591
ırsa	-7592
ıver	-7593
▁Ala	-7594
▁All	-7595
▁Buh	-7596
▁Cen	-7597
▁Dir	-7598
▁Erz	-7599
▁Fas	-7600
▁Fen	-7601
▁Fil	-7602
▁Gez	-7603
▁Gir	-7604
▁His	-7605
▁Hâk	-7606
▁Hâl	-7607
▁Kav	-7608
▁Kör	-7609
▁Min	-7610
▁Mor	-7611
▁Mus	-7612
▁Müb	-7613
▁Nar	-7614
▁Pal	-7615
▁Pir	-7616
▁Sap	-7617
▁Tan	-7618
▁Ten	-7619
▁Val	-7620
▁Vik	-7621
▁Yık	-7622
▁Yıl	-7623
▁Zev	-7624
▁Zor	-7625
▁ana	-7626
▁and	-7627
▁art	-7628
▁bed	-7629
▁bör	-7630
▁car	-7631
▁cer	-7632
▁dan	-7633
▁esk	-7634
▁eşy	-7635
▁fas	-7636
▁fev	-7637
▁gad	-7638
▁hıç	-7639
▁ink	-7640
▁kut	-7641
▁mid	-7642
▁mih	-7643
▁mir	-7644
▁miz	-7645
▁nez	-7646
▁okk	-7647
▁pir	-7648
▁pro	-7649
▁riy	-7650
▁soğ	-7651
▁suy	-7652
▁tet	-7653
▁tul	-7654
▁tüm	-7655
▁val	-7656
▁vas	-7657
▁yeş	-7658
▁zıt	-7659
▁Çak	-7660
▁Çam	-7661
▁Çat	-7662
▁çob	-7663
▁öfk	-7664
▁öte	-7665
▁şer	-7666
Artık	-7667
Haydi	-7668
Yayçe	-7669
adiye	-7670
angır	-7671
ankör	-7672
araya	-7673
bütün	-7674
civer	-7675
dalye	-7676
dayan	-7677
ekele	-7678
elere	-7679
emadi	-7680
eresi	-7681
erruh	-7682
evver	-7683
galar	-7684
haber	-7685
irdik	-7686
irket	-7687
irmin	-7688
itnat	-7689
iyeci	-7690
kasya	-7691
lanır	-7692
lasik	-7693
lenen	-7694
lomat	-7695
lunun	-7696
lığım	-7697
mayın	-7698
mayız	-7699
ranit	-7700
selam	-7701
sünün	-7702
sının	-7703
tihan	-7704
tisep	-7705
tiyak	-7706
tiyar	-7707
tiyle	-7708
turdu	-7709
tığım	-7710
üsüne	-7711
ğinde	-7712
ğının	-7713
ğınız	-7714
ırmış	-7715
ısına	-7716
ıymış	-7717
▁!...	-7718
▁Bayr	-7719
▁Başı	-7720
▁Biri	-7721
▁Canı	-7722
▁Esir	-7723
▁Evde	-7724
▁Gidi	-7725
▁Halk	-7726
▁Karn	-7727
▁Kims	-7728
▁Koyu	-7729
▁Köşe	-7730
▁Loti	-7731
▁Pire	-7732
▁Sizi	-7733
▁Tanı	-7734
▁Ulah	-7735
▁Usta	-7736
▁Vire	-7737
▁Zihn	-7738
▁acık	-7739
▁ahlâ	-7740
▁akla	-7741
▁alac	-7742
▁amma	-7743
▁arka	-7744
▁ayıp	-7745
▁ağzı	-7746
▁bari	-7747
▁bira	-7748
▁boru	-7749
▁boyu	-7750
▁burk	-7751
▁cuma	-7752
▁deri	-7753
▁dişi	-7754
▁edin	-7755
▁fayd	-7756
▁fâni	-7757
▁gerd	-7758
▁gönl	-7759
▁göze	-7760
▁göğe	-7761
▁halı	-7762
▁hani	-7763
▁hile	-7764
▁icra	-7765
▁inek	-7766
▁işle	-7767
▁kafa	-7768
▁kaya	-7769
▁kaza	-7770
▁kişn	-7771
▁kolu	-7772
▁komş	-7773
▁kutu	-7774
▁lafa	-7775
▁marş	-7776
▁meci	-7777
▁mevc	-7778
▁moda	-7779
▁muav	-7780
▁muaş	-7781
▁naaş	-7782
▁okka	-7783
▁okur	-7784
▁oruç	-7785
▁oğul	-7786
▁palt	-7787
▁poli	-7788
▁seda	-7789
▁silk	-7790
▁sine	-7791
▁sonr	-7792
▁tadı	-7793
▁topr	-7794
▁uyut	-7795
▁uçar	-7796
▁vası	-7797
▁yayı	-7798
▁yolc	-7799
▁zeng	-7800
▁Çarş	-7801
▁Öptü	-7802
▁çalı	-7803
▁ökçe	-7804
▁önce	-7805
▁ücra	-7806
▁ümid	-7807
▁İkin	-7808
▁İnan	-7809
▁İşit	-7810
▁şeri	-7811
▁şunu	-7812
alanga	-7813
arında	-7814
asıydı	-7815
ayınca	-7816
azları	-7817
ağında	-7818
besine	-7819
desine	-7820
dinizi	-7821
ebilir	-7822
eliydi	-7823
emedik	-7824
ereddi	-7825
ferans	-7826
kinden	-7827
pazarı	-7828
renköy	-7829
salsiz	-7830
sizlik	-7831
tırdım	-7832
umuzun	-7833
unları	-7834
usuyla	-7835
çıplak	-7836
ılarak	-7837
ılavuz	-7838
ırdığı	-7839
▁Adeta	-7840
▁Araba	-7841
▁Atina	-7842
▁Bahçe	-7843
▁Bazen	-7844
▁Birer	-7845
▁Boyar	-7846
▁Bunda	-7847
▁Bırak	-7848
▁Ciddi	-7849
▁Demin	-7850
▁Demir	-7851
▁Dîvan	-7852
▁Eflâk	-7853
▁Erkek	-7854
▁Esmer	-7855
▁Evine	-7856
▁Evlen	-7857
▁Fâzıl	-7858
▁Gayri	-7859
▁Götür	-7860
▁Horoz	-7861
▁Israr	-7862
▁Keder	-7863
▁Keşke	-7864
▁Komit	-7865
▁Kılıc	-7866
▁Namaz	-7867
▁Oğlum	-7868
▁Sakin	-7869
▁Selam	-7870
▁Serez	-7871
▁Serçe	-7872
▁Siper	-7873
▁Sudan	-7874
▁Sözde	-7875
▁Sıcak	-7876
▁Talih	-7877
▁Tarih	-7878
▁Tatlı	-7879
▁Vâkıa	-7880
▁Yazık	-7881
▁Yörük	-7882
▁abdes	-7883
▁aklın	-7884
▁aleti	-7885
▁anası	-7886
▁angar	-7887
▁ateşe	-7888
▁aşkın	-7889
▁badan	-7890
▁bariz	-7891
▁barut	-7892
▁basam	-7893
▁bekâr	-7894
▁bizde	-7895
▁boşal	-7896
▁boşan	-7897
▁bulup	-7898
▁büktü	-7899
▁büyüy	-7900
▁dahil	-7901
▁daire	-7902
▁damat	-7903
▁dayım	-7904
▁delik	-7905
▁didik	-7906
▁dilen	-7907
▁domuz	-7908
▁dîvan	-7909
▁dökül	-7910
▁dönüp	-7911
▁evden	-7912
▁fener	-7913
▁görse	-7914
▁göğsü	-7915
▁günkü	-7916
▁gıcır	-7917
▁hatip	-7918
▁heyul	-7919
▁hurrâ	-7920
▁imkân	-7921
▁indim	-7922
▁inlet	-7923
▁inmiş	-7924
▁irili	-7925
▁istih	-7926
▁iğren	-7927
▁kahve	-7928
▁kalıp	-7929
▁kamer	-7930
▁karga	-7931
▁katil	-7932
▁kayıt	-7933
▁kaçıp	-7934
▁kesif	-7935
▁keşke	-7936
▁komit	-7937
▁kopan	-7938
▁koşar	-7939
▁kralı	-7940
▁köpük	-7941
▁köyde	-7942
▁kırık	-7943
▁kızım	-7944
▁lanet	-7945
▁limon	-7946
▁lâkin	-7947
▁macer	-7948
▁malik	-7949
▁malum	-7950
▁malûm	-7951
▁mâbed	-7952
▁mâhut	-7953
▁mühim	-7954
▁mülev	-7955
▁müsâv	-7956
▁mütef	-7957
▁müzak	-7958
▁nağme	-7959
▁neydi	-7960
▁nikâh	-7961
▁olsam	-7962
▁pamuk	-7963
▁paşam	-7964
▁pençe	-7965
▁peyda	-7966
▁sabun	-7967
▁sadık	-7968
▁sigar	-7969
▁siler	-7970
▁sinek	-7971
▁sisin	-7972
▁sözde	-7973
▁sürük	-7974
▁sırıl	-7975
▁taciz	-7976
▁taktı	-7977
▁tanış	-7978
▁tartı	-7979
▁tehdi	-7980
▁tekme	-7981
▁telâk	-7982
▁tufan	-7983
▁tükür	-7984
▁türkü	-7985
▁tıkan	-7986
▁uğrar	-7987
▁vakte	-7988
▁veril	-7989
▁vuzuh	-7990
▁yanak	-7991
▁yattı	-7992
▁yağan	-7993
▁yaşay	-7994
▁yedir	-7995
▁yiyor	-7996
▁yorul	-7997
▁yüzde	-7998
▁yıkan	-7999
▁yıkık	-8000
▁zevki	-8001
▁ziyad	-8002
▁Çoluk	-8003
▁Çıktı	-8004
▁çakıl	-8005
▁çamur	-8006
▁çatal	-8007
▁çizgi	-8008
▁çolak	-8009
▁çoluk	-8010
▁çözdü	-8011
▁ötede	-8012
▁ürken	-8013
▁üstün	-8014
▁ıssız	-8015
▁Şehit	-8016
▁şakır	-8017
▁şekli	-8018
amürsel	-8019
dukanın	-8020
dıracak	-8021
dırarak	-8022
elezziz	-8023
elibolu	-8024
hanenin	-8025
ilmeyen	-8026
irminci	-8027
iyeleri	-8028
iyetten	-8029
ladıkça	-8030
ladınız	-8031
larınız	-8032
lattığı	-8033
latıyor	-8034
layınca	-8035
lemeyen	-8036
meyiniz	-8037
ospodin	-8038
tırarak	-8039
udurmuş	-8040
ıldıyor	-8041
ımnında	-8042
ıyorduk	-8043
▁Anneme	-8044
▁Avukat	-8045
▁Azrail	-8046
▁Bektaş	-8047
▁Bundan	-8048
▁Canını	-8049
▁Estağf	-8050
▁Evvelâ	-8051
▁Eğildi	-8052
▁Ferruh	-8053
▁Fitnat	-8054
▁Geriye	-8055
▁Gözünü	-8056
▁Haydar	-8057
▁Kaldır	-8058
▁Kaleye	-8059
▁Kimdir	-8060
▁Kumral	-8061
▁Kuvvet	-8062
▁Köşkün	-8063
▁Maymun	-8064
▁Millet	-8065
▁Nefesi	-8066
▁Tebriz	-8067
▁Tepesi	-8068
▁Teslim	-8069
▁Vikont	-8070
▁ailesi	-8071
▁almadı	-8072
▁atları	-8073
▁bekler	-8074
▁bekley	-8075
▁birisi	-8076
▁birşey	-8077
▁boyuna	-8078
▁bulgur	-8079
▁burcun	-8080
▁cevabı	-8081
▁dayalı	-8082
▁dizdar	-8083
▁doğrul	-8084
▁durmaz	-8085
▁dönmek	-8086
▁döşeli	-8087
▁düştük	-8088
▁düştüm	-8089
▁edebil	-8090
▁edelim	-8091
▁ederse	-8092
▁edeyim	-8093
▁ekmeği	-8094
▁emindi	-8095
▁eminim	-8096
▁esvabı	-8097
▁etrafa	-8098
▁evinde	-8099
▁evinin	-8100
▁evvelâ	-8101
▁felsef	-8102
▁fesini	-8103
▁fışkır	-8104
▁gaddar	-8105
▁galebe	-8106
▁geriye	-8107
▁girdik	-8108
▁gittik	-8109
▁granit	-8110
▁görsün	-8111
▁görücü	-8112
▁gülünç	-8113
▁güneşi	-8114
▁gürült	-8115
▁harika	-8116
▁havada	-8117
▁hayalî	-8118
▁hendes	-8119
▁heybet	-8120
▁huzura	-8121
▁hücuma	-8122
▁iftira	-8123
▁ilişti	-8124
▁iyilik	-8125
▁kalbim	-8126
▁kalede	-8127
▁kalsın	-8128
▁kanaat	-8129
▁kaptan	-8130
▁kavmin	-8131
▁kaynaş	-8132
▁kaçmış	-8133
▁kağıdı	-8134
▁kirası	-8135
▁kirpik	-8136
▁klasik	-8137
▁korkut	-8138
▁kulübe	-8139
▁kurmuş	-8140
▁küçült	-8141
▁kısaca	-8142
▁kızını	-8143
▁levent	-8144
▁lezzet	-8145
▁manalı	-8146
▁mağlup	-8147
▁meclis	-8148
▁memuru	-8149
▁mendil	-8150
▁mescit	-8151
▁minder	-8152
▁muhayy	-8153
▁mübalâ	-8154
▁müdafa	-8155
▁müstak	-8156
▁nankör	-8157
▁neşeli	-8158
▁neşesi	-8159
▁okumak	-8160
▁okuyor	-8161
▁olalım	-8162
▁olmasa	-8163
▁ordusu	-8164
▁orduya	-8165
▁ruhunu	-8166
▁samimî	-8167
▁sanatı	-8168
▁seyret	-8169
▁sisler	-8170
▁sofaya	-8171
▁sönmez	-8172
▁sükûnu	-8173
▁sünnet	-8174
▁sıkıcı	-8175
▁tahmin	-8176
▁tahsil	-8177
▁tahtın	-8178
▁talihi	-8179
▁tanıdı	-8180
▁tasavv	-8181
▁tatmin	-8182
▁tavana	-8183
▁tefeül	-8184
▁terakk	-8185
▁tercih	-8186
▁teskin	-8187
▁tiksin	-8188
▁toplay	-8189
▁uğultu	-8190
▁verici	-8191
▁vurdur	-8192
▁vücuda	-8193
▁yaptım	-8194
▁yavere	-8195
▁yerler	-8196
▁yırtıl	-8197
▁zâbite	-8198
▁çelebi	-8199
▁çiçeği	-8200
▁çocuğa	-8201
▁çökmüş	-8202
▁öperek	-8203
▁öpüyor	-8204
▁İncili	-8205
▁İtalya	-8206
▁İçinde	-8207
▁ısırdı	-8208
▁Şişman	-8209
▁şaşırt	-8210
▁şehvet	-8211
▁şezlon	-8212
adığımız	-8213
aşıyordu	-8214
emadiyen	-8215
iyetleri	-8216
lanmıştı	-8217
laştılar	-8218
ulacaktı	-8219
▁Bakalım	-8220
▁Beraber	-8221
▁Birinci	-8222
▁Bununla	-8223
▁Derenin	-8224
▁Erenköy	-8225
▁Eskiden	-8226
▁Gözünün	-8227
▁Kabahat	-8228
▁Kadıköy	-8229
▁Kaleden	-8230
▁Kolları	-8231
▁Meğerse	-8232
▁Muhareb	-8233
▁Ordugâh	-8234
▁Sevgili	-8235
▁Sokakta	-8236
▁Telefon	-8237
▁Toroğlu	-8238
▁Trablus	-8239
▁Uzaktan	-8240
▁affedil	-8241
▁akseden	-8242
▁anahtar	-8243
▁anlardı	-8244
▁askerdi	-8245
▁avlunun	-8246
▁aylarca	-8247
▁ağaçlık	-8248
▁ağırlaş	-8249
▁bakarım	-8250
▁başının	-8251
▁biriydi	-8252
▁bitince	-8253
▁bozuyor	-8254
▁bugünün	-8255
▁bunamış	-8256
▁buseler	-8257
▁buyurun	-8258
▁büyücek	-8259
▁camları	-8260
▁cephane	-8261
▁darılır	-8262
▁defteri	-8263
▁denizin	-8264
▁dinleye	-8265
▁dizleri	-8266
▁durmadı	-8267
▁duyulan	-8268
▁duyuyor	-8269
▁edilmiş	-8270
▁etmemiş	-8271
▁ettikçe	-8272
▁ettirdi	-8273
▁eğlenir	-8274
▁felsefe	-8275
▁gaziler	-8276
▁geceler	-8277
▁gençken	-8278
▁gençlik	-8279
▁geçirir	-8280
▁gitmeye	-8281
▁götürür	-8282
▁gözümün	-8283
▁gözüyle	-8284
▁gülüşle	-8285
▁haberim	-8286
▁hakkımı	-8287
▁hastalı	-8288
▁hiçbiri	-8289
▁ihtişam	-8290
▁ileride	-8291
▁iskelet	-8292
▁isterse	-8293
▁içimden	-8294
▁işkence	-8295
▁iştirak	-8296
▁iştiyak	-8297
▁kaftanı	-8298
▁kalktık	-8299
▁kavuklu	-8300
▁kiminle	-8301
▁kişinin	-8302
▁korular	-8303
▁kurtarı	-8304
▁kızardı	-8305
▁laciver	-8306
▁letafet	-8307
▁mektubu	-8308
▁menekşe	-8309
▁menfaat	-8310
▁mezarın	-8311
▁muhasar	-8312
▁muhitin	-8313
▁mukabil	-8314
▁mânâsız	-8315
▁münasip	-8316
▁nakarat	-8317
▁okuduğu	-8318
▁okumaya	-8319
▁okurken	-8320
▁oturdum	-8321
▁paşanın	-8322
▁perdeli	-8323
▁profili	-8324
▁rüyalar	-8325
▁sanılan	-8326
▁sesiyle	-8327
▁sevdiği	-8328
▁silerek	-8329
▁soruyor	-8330
▁sualler	-8331
▁sırtına	-8332
▁tabiatı	-8333
▁takıldı	-8334
▁tarafta	-8335
▁tekâmül	-8336
▁tutuştu	-8337
▁tüfekli	-8338
▁unuttum	-8339
▁vereyim	-8340
▁veriniz	-8341
▁vurarak	-8342
▁yapalım	-8343
▁yapmaya	-8344
▁yetişti	-8345
▁yiyecek	-8346
▁yolunda	-8347
▁yüreğim	-8348
▁yürüdüm	-8349
▁yüzünde	-8350
▁zorladı	-8351
▁Üzerine	-8352
▁çalılık	-8353
▁çıkarıp	-8354
▁öldürdü	-8355
▁üzerime	-8356
▁şeylere	-8357
▁şikayet	-8358
layacaktı	-8359
taklarını	-8360
▁Açlıktan	-8361
▁Hürriyet	-8362
▁Kadınlar	-8363
▁Kafkasya	-8364
▁Kocakarı	-8365
▁Mukaddes	-8366
▁Otomobil	-8367
▁Rahatsız	-8368
▁Sokaktan	-8369
▁alnından	-8370
▁arabanın	-8371
▁aradılar	-8372
▁arkadaşı	-8373
▁atılmaya	-8374
▁avlusuna	-8375
▁açılmaya	-8376
▁baktılar	-8377
▁başlardı	-8378
▁belliydi	-8379
▁bildiğim	-8380
▁bilinmez	-8381
▁bilirsin	-8382
▁boyanmış	-8383
▁bozulmuş	-8384
▁boğazına	-8385
▁bulurlar	-8386
▁cesareti	-8387
▁cezasını	-8388
▁derinlik	-8389
▁dinliyor	-8390
▁diyorlar	-8391
▁erguvanî	-8392
▁etmesini	-8393
▁etmiştim	-8394
▁evlendim	-8395
▁farkında	-8396
▁fundalık	-8397
▁geldikçe	-8398
▁geçirdim	-8399
▁geçtikçe	-8400
▁girmemiş	-8401
▁girmişti	-8402
▁gördüğüm	-8403
▁göreceği	-8404
▁götürdüm	-8405
▁hakikate	-8406
▁hayaline	-8407
▁hizasına	-8408
▁ihtiyara	-8409
▁imkansız	-8410
▁insafsız	-8411
▁istemeye	-8412
▁itibaren	-8413
▁işitildi	-8414
▁işittiği	-8415
▁kaftanın	-8416
▁kaleleri	-8417
▁kalkarak	-8418
▁kalktığı	-8419
▁kamaştır	-8420
▁karışmış	-8421
▁katiyyen	-8422
▁kaynıyor	-8423
▁kolayını	-8424
▁kurtuluş	-8425
▁kütüphan	-8426
▁küçükken	-8427
▁kılıçlar	-8428
▁kımıldan	-8429
▁kımıldat	-8430
▁kımılday	-8431
▁kızcağız	-8432
▁muhafaza	-8433
▁mutluluk	-8434
▁müracaat	-8435
▁müteşekk	-8436
▁müverrih	-8437
▁namazına	-8438
▁naraları	-8439
▁odasının	-8440
▁olabilir	-8441
▁olmuşsun	-8442
▁pantolon	-8443
▁perdenin	-8444
▁renginde	-8445
▁sakalını	-8446
▁sandalye	-8447
▁serilmiş	-8448
▁sevinçle	-8449
▁sevişmek	-8450
▁söylerim	-8451
▁sürüleri	-8452
▁sıcaktan	-8453
▁sıkılmış	-8454
▁sırtında	-8455
▁tarafını	-8456
▁tebessüm	-8457
▁tenezzül	-8458
▁tevekkül	-8459
▁titreyen	-8460
▁uyuyordu	-8461
▁uğradığı	-8462
▁veremedi	-8463
▁vücuduna	-8464
▁yakaladı	-8465
▁yaparlar	-8466
▁yaptığım	-8467
▁yıldırım	-8468
▁zihninde	-8469
▁zırhları	-8470
▁Üzerinde	-8471
▁çarparak	-8472
▁çekildim	-8473
▁çocukluk	-8474
▁çocuğunu	-8475
▁çıkardım	-8476
▁çıkmıştı	-8477
▁öğrenmek	-8478
▁ıslanmış	-8479
▁Şiddetle	-8480
▁şaşaladı	-8481
▁şaşırdım	-8482
▁şaşırmış	-8483
▁şeklinde	-8484
▁şerefine	-8485
▁şeylerin	-8486
▁şüphelen	-8487
acaklarını	-8488
alarındaki	-8489
emeyecekti	-8490
▁Anlamıyor	-8491
▁Anneciğim	-8492
▁Annesinin	-8493
▁Arkasında	-8494
▁Biliyordu	-8495
▁Biliyorum	-8496
▁Bulgarlar	-8497
▁Elleriyle	-8498
▁Ferruhşah	-8499
▁Gözlerimi	-8500
▁Gözlerine	-8501
▁Kollarını	-8502
▁Sevinçten	-8503
▁affediniz	-8504
▁aleyhinde	-8505
▁anlamadan	-8506
▁anlayınca	-8507
▁askerleri	-8508
▁asırlarca	-8509
▁ağlıyorum	-8510
▁bacakları	-8511
▁beklediği	-8512
▁beylerbey	-8513
▁bulunduğu	-8514
▁büyüyordu	-8515
▁dalıyordu	-8516
▁dokunarak	-8517
▁dönüyordu	-8518
▁esvabının	-8519
▁geleceğim	-8520
▁girdiğini	-8521
▁giriyordu	-8522
▁gittiğini	-8523
▁görmediği	-8524
▁haykırdım	-8525
▁hayretten	-8526
▁imparator	-8527
▁içindeydi	-8528
▁kabahatim	-8529
▁kadınlara	-8530
▁kalesinin	-8531
▁kapayarak	-8532
▁kararıyor	-8533
▁koşuyordu	-8534
▁kurbanlık	-8535
▁kurtarmak	-8536
▁mallarını	-8537
▁memuriyet	-8538
▁mukavemet	-8539
▁nineciğim	-8540
▁parçaları	-8541
▁sakalının	-8542
▁sarıyordu	-8543
▁söylemeye	-8544
▁uğraşıyor	-8545
▁velinimet	-8546
▁verecekti	-8547
▁vezirleri	-8548
▁vücudunun	-8549
▁yaklaştır	-8550
▁yanakları	-8551
▁yaslanmış	-8552
▁yatıyordu	-8553
▁yağıyordu	-8554
▁yüzlerine	-8555
▁yıldızlar	-8556
▁yığınları	-8557
▁zavallıya	-8558
▁çekiyordu	-8559
▁çoğalıyor	-8560
▁çıkacağım	-8561
▁çıkarmadı	-8562
▁çıkarmaya	-8563
▁çıktıktan	-8564
▁İmparator	-8565
▁İngilizce	-8566
▁şeylerden	-8567
amıyorlardı	-8568
ediyorlardı	-8569
▁Aralarında	-8570
▁Diyorlardı	-8571
▁Karamürsel	-8572
▁Külhanbeyi	-8573
▁Zavallının	-8574
▁anlaşılmaz	-8575
▁ayaklarımı	-8576
▁ağlıyorsun	-8577
▁babasından	-8578
▁beklemeden	-8579
▁cigarasını	-8580
▁diyeceksin	-8581
▁dizlerinin	-8582
▁ellerinden	-8583
▁gazeteleri	-8584
▁geliyorlar	-8585
▁getirdiğim	-8586
▁geçmemişti	-8587
▁gördükleri	-8588
▁haftalarca	-8589
▁hareketsiz	-8590
▁harikulade	-8591
▁hastalandı	-8592
▁hatırlatan	-8593
▁isterseniz	-8594
▁içlerinden	-8595
▁kaldırdığı	-8596
▁karanlıktı	-8597
▁kendisiyle	-8598
▁kesilmişti	-8599
▁kitapların	-8600
▁kumandanın	-8601
▁kurbağalar	-8602
▁mütefekkir	-8603
▁mütelezziz	-8604
▁namazından	-8605
▁olabilirdi	-8606
▁omuzlarına	-8607
▁ordusundan	-8608
▁sallıyordu	-8609
▁sesleriyle	-8610
▁uykusundan	-8611
▁yabancılar	-8612
▁yaklaştığı	-8613
▁yapacağını	-8614
▁çevirmişti	-8615
▁İsterseniz	-8616
▁Arkadaşımın	-8617
▁Avrupalılaş	-8618
▁Gözlerinden	-8619
▁Hanımefendi	-8620
▁Yeniçeriler	-8621
▁arkadaşımın	-8622
▁arkadaşının	-8623
▁ayaklarının	-8624
▁bilmiyordum	-8625
▁bırakıyordu	-8626
▁dinliyordum	-8627
▁dudaklarına	-8628
▁duyuluyordu	-8629
▁düşünüyorum	-8630
▁etrafındaki	-8631
▁gelmişlerdi	-8632
▁hemşerileri	-8633
▁kaldırdılar	-8634
▁karışıyordu	-8635
▁kendilerini	-8636
▁nargilesini	-8637
▁oluyorlardı	-8638
▁samimiyetle	-8639
▁sanılacaktı	-8640
▁söylediğini	-8641
▁sırılsıklam	-8642
▁tarafındaki	-8643
▁yaşındayken	-8644
▁yerlerinden	-8645
▁adamlarından	-8646
▁geçiyorlardı	-8647
▁hatırlayınca	-8648
▁hatırlıyordu	-8649
▁istiyorlardı	-8650
▁kardeşlerine	-8651
▁titretiyordu	-8652
▁yürüyorlardı	-8653
▁Estağfurullah	-8654
▁estağfirullah	-8655
▁penceresinden	-8656
▁çalışıyorlardı	-8657
Ev	-8658
On	-8659
hç	-8660
lg	-8661
ûs	-8662
ğr	-8663
İn	-8664
▁:	-8665
▁”	-8666
Tar	-8667
Yol	-8668
add	-8669
ani	-8670
avî	-8671
ayi	-8672
aşk	-8673
bde	-8674
bus	-8675
cin	-8676
cuk	-8677
don	-8678
dâr	-8679
eci	-8680
erâ	-8681
fün	-8682
gam	-8683
iht	-8684
ikr	-8685
imn	-8686
kem	-8687
lav	-8688
leç	-8689
lûr	-8690
osu	-8691
raz	-8692
rig	-8693
sik	-8694
teh	-8695
ttı	-8696
uğa	-8697
ves	-8698
vin	-8699
zet	-8700
âce	-8701
âki	-8702
âsı	-8703
âta	-8704
âya	-8705
âüd	-8706
çın	-8707
ûle	-8708
üya	-8709
ıki	-8710
ışı	-8711
▁Ap	-8712
▁Ec	-8713
▁Ee	-8714
▁Eh	-8715
▁Fr	-8716
▁Li	-8717
▁Po	-8718
▁bi	-8719
▁mû	-8720
▁sü	-8721
▁uk	-8722
Beni	-8723
Bizi	-8724
Daha	-8725
Kızı	-8726
abak	-8727
abım	-8728
akâr	-8729
alaş	-8730
anet	-8731
anya	-8732
arap	-8733
asım	-8734
atle	-8735
atur	-8736
atır	-8737
ayir	-8738
ayık	-8739
azdı	-8740
ağan	-8741
bayı	-8742
dili	-8743
ebek	-8744
ebep	-8745
edit	-8746
elle	-8747
enet	-8748
erre	-8749
etic	-8750
eton	-8751
gaya	-8752
grad	-8753
gâne	-8754
ibar	-8755
ibet	-8756
ilav	-8757
isan	-8758
işir	-8759
kabı	-8760
karp	-8761
kine	-8762
kıbe	-8763
lahî	-8764
laya	-8765
lidi	-8766
mele	-8767
meni	-8768
mese	-8769
olte	-8770
osur	-8771
ovuk	-8772
oşay	-8773
resi	-8774
rist	-8775
sten	-8776
tele	-8777
tere	-8778
teye	-8779
udan	-8780
ukuk	-8781
ullu	-8782
unus	-8783
uyle	-8784
uzun	-8785
uğum	-8786
vele	-8787
veri	-8788
yacı	-8789
yalı	-8790
âbir	-8791
âket	-8792
âlet	-8793
âlük	-8794
ânun	-8795
âsar	-8796
âtir	-8797
âvur	-8798
âyet	-8799
üdük	-8800
üstü	-8801
üten	-8802
ğümü	-8803
ğıma	-8804
ılsa	-8805
ılız	-8806
ıpır	-8807
ıttı	-8808
ızda	-8809
ışın	-8810
▁Aaa	-8811
▁Bit	-8812
▁Değ	-8813
▁Emr	-8814
▁Ese	-8815
▁Far	-8816
▁Fel	-8817
▁Get	-8818
▁Gur	-8819
▁Hac	-8820
▁Hic	-8821
▁Kem	-8822
▁Küt	-8823
▁Kıb	-8824
▁Kış	-8825
▁Meb	-8826
▁Men	-8827
▁Mid	-8828
▁Müc	-8829
▁Mız	-8830
▁Naz	-8831
▁Nik	-8832
▁Nur	-8833
▁Oyn	-8834
▁Raz	-8835
▁Rüz	-8836
▁Süz	-8837
▁Tof	-8838
▁Tos	-8839
▁Tüf	-8840
▁Tüy	-8841
▁Tık	-8842
▁Vas	-8843
▁Yah	-8844
▁Yas	-8845
▁aba	-8846
▁akı	-8847
▁asi	-8848
▁aya	-8849
▁azı	-8850
▁aşç	-8851
▁baz	-8852
▁bus	-8853
▁büs	-8854
▁bık	-8855
▁bıç	-8856
▁deş	-8857
▁döğ	-8858
▁for	-8859
▁fıç	-8860
▁geb	-8861
▁gey	-8862
▁güc	-8863
▁güz	-8864
▁hez	-8865
▁him	-8866
▁hok	-8867
▁hış	-8868
▁keç	-8869
▁köh	-8870
▁kıb	-8871
▁kın	-8872
▁kıç	-8873
▁loş	-8874
▁mab	-8875
▁maî	-8876
▁muc	-8877
▁muy	-8878
▁nah	-8879
▁nev	-8880
▁niy	-8881
▁paz	-8882
▁pot	-8883
▁pây	-8884
▁pîr	-8885
▁rap	-8886
▁rol	-8887
▁rız	-8888
▁soh	-8889
▁sök	-8890
▁vec	-8891
▁veh	-8892
▁vel	-8893
▁vuk	-8894
▁yek	-8895
▁zıp	-8896
▁Çağ	-8897
▁Çen	-8898
▁Çit	-8899
▁Ölü	-8900
▁çit	-8901
▁çiğ	-8902
▁çür	-8903
▁İsm	-8904
▁şem	-8905
▁şur	-8906
Biraz	-8907
acıya	-8908
affer	-8909
ahede	-8910
akaya	-8911
aklar	-8912
alası	-8913
alağa	-8914
allim	-8915
ardık	-8916
areti	-8917
arrik	-8918
arruz	-8919
askal	-8920
astik	-8921
asözü	-8922
budak	-8923
cenap	-8924
daydı	-8925
deniz	-8926
devle	-8927
dürdü	-8928
ebebi	-8929
elina	-8930
eliğe	-8931
endiş	-8932
erlek	-8933
errim	-8934
essam	-8935
essüs	-8936
etice	-8937
eydin	-8938
eyyic	-8939
eyyiç	-8940
eğimi	-8941
hassa	-8942
hatır	-8943
iliğe	-8944
irmen	-8945
iyano	-8946
iyeli	-8947
kırdı	-8948
layış	-8949
laşan	-8950
lelma	-8951
lemek	-8952
luğun	-8953
makla	-8954
mekle	-8955
meyin	-8956
meyip	-8957
muşum	-8958
mışım	-8959
olsun	-8960
osunu	-8961
siyet	-8962
tadır	-8963
tecek	-8964
tifat	-8965
tirin	-8966
tırır	-8967
ucunu	-8968
uluğa	-8969
umdan	-8970
unlar	-8971
ursun	-8972
verdi	-8973
âbele	-8974
âmeyi	-8975
ânına	-8976
ümden	-8977
ğidim	-8978
ğında	-8979
ıldık	-8980
ılmam	-8981
ımışk	-8982
ırmak	-8983
ısmar	-8984
▁Asil	-8985
▁Ayın	-8986
▁Beyi	-8987
▁Blas	-8988
▁Etti	-8989
▁Gazi	-8990
▁Hanı	-8991
▁Hast	-8992
▁Kahr	-8993
▁Kimi	-8994
▁Kurb	-8995
▁Kurt	-8996
▁Köpr	-8997
▁Maks	-8998
▁Niye	-8999
▁Oğul	-9000
▁Parm	-9001
▁Razı	-9002
▁Sind	-9003
▁Sofr	-9004
▁Sâhi	-9005
▁Sırp	-9006
▁Tarl	-9007
▁Teke	-9008
▁Topç	-9009
▁Ufak	-9010
▁Vali	-9011
▁Yahu	-9012
▁Yaşı	-9013
▁aklı	-9014
▁akıp	-9015
▁arif	-9016
▁ayağ	-9017
▁aziz	-9018
▁aşkı	-9019
▁aştı	-9020
▁bela	-9021
▁bele	-9022
▁beye	-9023
▁beyi	-9024
▁bezi	-9025
▁bill	-9026
▁bine	-9027
▁ceza	-9028
▁cilt	-9029
▁cumb	-9030
▁dava	-9031
▁dağa	-9032
▁deve	-9033
▁dile	-9034
▁dili	-9035
▁dinî	-9036
▁dizi	-9037
▁döne	-9038
▁döve	-9039
▁emri	-9040
▁esen	-9041
▁etki	-9042
▁eğdi	-9043
▁eşit	-9044
▁feda	-9045
▁fesi	-9046
▁garp	-9047
▁gebe	-9048
▁gedi	-9049
▁giye	-9050
▁hala	-9051
▁hele	-9052
▁idik	-9053
▁ilmî	-9054
▁irat	-9055
▁itik	-9056
▁itis	-9057
▁itiş	-9058
▁izah	-9059
▁içün	-9060
▁işin	-9061
▁kadi	-9062
▁kani	-9063
▁kavi	-9064
▁kayb	-9065
▁keyf	-9066
▁koku	-9067
▁kuyu	-9068
▁kuşu	-9069
▁kârı	-9070
▁leng	-9071
▁mahf	-9072
▁meşh	-9073
▁müjd	-9074
▁mısr	-9075
▁onar	-9076
▁onca	-9077
▁otel	-9078
▁reis	-9079
▁sark	-9080
▁sayı	-9081
▁sema	-9082
▁serh	-9083
▁sinc	-9084
▁sânî	-9085
▁söze	-9086
▁sırf	-9087
▁tabl	-9088
▁tavş	-9089
▁tebc	-9090
▁teda	-9091
▁tenh	-9092
▁tren	-9093
▁ulem	-9094
▁ulvi	-9095
▁ulvî	-9096
▁uslu	-9097
▁usul	-9098
▁vaaz	-9099
▁yapy	-9100
▁yuva	-9101
▁zarf	-9102
▁zeki	-9103
▁Ülen	-9104
▁çant	-9105
▁çeki	-9106
▁çizg	-9107
▁çuha	-9108
▁çıng	-9109
▁öküz	-9110
▁önde	-9111
▁öper	-9112
▁öpüp	-9113
▁öpüş	-9114
▁öttü	-9115
▁üçer	-9116
▁İtti	-9117
▁ılık	-9118
▁şevk	-9119
▁şive	-9120
......	-9121
Yalnız	-9122
aathan	-9123
abildi	-9124
abıyla	-9125
adeler	-9126
adının	-9127
adırın	-9128
akaldı	-9129
alıydı	-9130
amızın	-9131
ardaki	-9132
artman	-9133
arşist	-9134
asıyle	-9135
aturka	-9136
ayınız	-9137
azımın	-9138
ağımın	-9139
buplar	-9140
cağını	-9141
deydim	-9142
dikten	-9143
dırmak	-9144
erecek	-9145
ereket	-9146
fethün	-9147
fettiş	-9148
haneye	-9149
ilenin	-9150
iyerek	-9151
lattım	-9152
lediği	-9153
lendir	-9154
leşmiş	-9155
lükten	-9156
mansız	-9157
mazsın	-9158
memesi	-9159
mezden	-9160
mıştır	-9161
olunan	-9162
renaki	-9163
seydin	-9164
tırmak	-9165
ucunda	-9166
usunda	-9167
uverdi	-9168
âhusus	-9169
âhîler	-9170
ümâyiş	-9171
ğünden	-9172
ılıklı	-9173
ılırdı	-9174
ıntısı	-9175
▁Akrab	-9176
▁Alâüd	-9177
▁Alçak	-9178
▁Aşağı	-9179
▁Baban	-9180
▁Baktı	-9181
▁Balık	-9182
▁Barut	-9183
▁Başım	-9184
▁Budak	-9185
▁Diyor	-9186
▁Diğer	-9187
▁Elimi	-9188
▁Erken	-9189
▁Fatih	-9190
▁Garip	-9191
▁Geldi	-9192
▁Gökte	-9193
▁Günde	-9194
▁Hasta	-9195
▁Husus	-9196
▁Kazan	-9197
▁Kilis	-9198
▁Komşu	-9199
▁Konya	-9200
▁Koştu	-9201
▁Kucak	-9202
▁Kânun	-9203
▁Mihal	-9204
▁Mirza	-9205
▁Müdür	-9206
▁Nâdan	-9207
▁Odaya	-9208
▁Okudu	-9209
▁Olmaz	-9210
▁Pazar	-9211
▁Peton	-9212
▁Rahmi	-9213
▁Saime	-9214
▁Sebep	-9215
▁Soşay	-9216
▁Tanım	-9217
▁Tenha	-9218
▁Terşi	-9219
▁Tövbe	-9220
▁Yanya	-9221
▁Yazın	-9222
▁aheng	-9223
▁ahıra	-9224
▁aldın	-9225
▁anane	-9226
▁aralı	-9227
▁asabî	-9228
▁attan	-9229
▁azabı	-9230
▁açtık	-9231
▁ağacı	-9232
▁ağlam	-9233
▁balta	-9234
▁başın	-9235
▁bekar	-9236
▁bekçi	-9237
▁beyin	-9238
▁bindi	-9239
▁bodur	-9240
▁burcu	-9241
▁bürün	-9242
▁büyür	-9243
▁büzül	-9244
▁cadde	-9245
▁cazip	-9246
▁ceset	-9247
▁cirit	-9248
▁ciğer	-9249
▁cılız	-9250
▁daimi	-9251
▁dalga	-9252
▁darbe	-9253
▁darıl	-9254
▁debde	-9255
▁denen	-9256
▁dikiş	-9257
▁diyen	-9258
▁dolan	-9259
▁donan	-9260
▁dondu	-9261
▁doyur	-9262
▁duyur	-9263
▁döktü	-9264
▁edile	-9265
▁eksik	-9266
▁elimi	-9267
▁endam	-9268
▁endiş	-9269
▁esrar	-9270
▁eşeği	-9271
▁farkı	-9272
▁fosur	-9273
▁fısıl	-9274
▁gafil	-9275
▁gazap	-9276
▁genci	-9277
▁geçit	-9278
▁giriş	-9279
▁görem	-9280
▁görme	-9281
▁hacca	-9282
▁halam	-9283
▁hamam	-9284
▁harab	-9285
▁heves	-9286
▁hâlde	-9287
▁hükmü	-9288
▁iffet	-9289
▁ihsas	-9290
▁indik	-9291
▁inkıl	-9292
▁intih	-9293
▁ispat	-9294
▁istiğ	-9295
▁itham	-9296
▁kanın	-9297
▁kaptı	-9298
▁karnı	-9299
▁karım	-9300
▁katır	-9301
▁kavga	-9302
▁kavuş	-9303
▁kazık	-9304
▁kaçak	-9305
▁kesin	-9306
▁keyfi	-9307
▁kimdi	-9308
▁koval	-9309
▁koçun	-9310
▁koşan	-9311
▁kumaş	-9312
▁kümes	-9313
▁kıldı	-9314
▁lütuf	-9315
▁mahut	-9316
▁martı	-9317
▁mecmu	-9318
▁mesle	-9319
▁metre	-9320
▁mevcu	-9321
▁misal	-9322
▁mutlu	-9323
▁müdür	-9324
▁müess	-9325
▁mühür	-9326
▁mütek	-9327
▁nadir	-9328
▁necip	-9329
▁nemli	-9330
▁nerde	-9331
▁neyse	-9332
▁nizâm	-9333
▁nutuk	-9334
▁oklar	-9335
▁oniki	-9336
▁pilav	-9337
▁pinek	-9338
▁polis	-9339
▁rakam	-9340
▁saftı	-9341
▁sahih	-9342
▁sahîf	-9343
▁saklı	-9344
▁sanan	-9345
▁sandı	-9346
▁sarar	-9347
▁sardı	-9348
▁semer	-9349
▁sevdi	-9350
▁siyas	-9351
▁somun	-9352
▁sular	-9353
▁susun	-9354
▁söndü	-9355
▁sükut	-9356
▁sıkış	-9357
▁taleb	-9358
▁tavan	-9359
▁taşan	-9360
▁temen	-9361
▁tepin	-9362
▁tramv	-9363
▁tulum	-9364
▁tutun	-9365
▁tâbir	-9366
▁tövbe	-9367
▁ucunu	-9368
▁uygun	-9369
▁vahşî	-9370
▁vakti	-9371
▁vekil	-9372
▁vuran	-9373
▁vârid	-9374
▁yalmz	-9375
▁yanar	-9376
▁yandı	-9377
▁yatan	-9378
▁yatar	-9379
▁yazdı	-9380
▁yazık	-9381
▁yemen	-9382
▁yerli	-9383
▁yumuş	-9384
▁yörük	-9385
▁zahit	-9386
▁zulmü	-9387
▁Çavuş	-9388
▁Çifte	-9389
▁Öteki	-9390
▁çatır	-9391
▁çifte	-9392
▁çoktu	-9393
▁çukur	-9394
▁çömel	-9395
▁çünkü	-9396
▁çıkma	-9397
▁çıtır	-9398
▁önüme	-9399
▁ürkek	-9400
▁üstad	-9401
▁üçyüz	-9402
▁İyice	-9403
▁şapka	-9404
▁şarkı	-9405
▁şedid	-9406
▁şedit	-9407
▁şedîd	-9408
▁şehre	-9409
▁şükür	-9410
Yaşasın	-9411
abilmek	-9412
adından	-9413
alanmış	-9414
amazlar	-9415
aşallah	-9416
binecek	-9417
dayarak	-9418
duğumuz	-9419
elerine	-9420
eliğini	-9421
endifer	-9422
imizden	-9423
ininden	-9424
isinden	-9425
iyetimi	-9426
keleler	-9427
klerini	-9428
lacaktı	-9429
layanın	-9430
lecekti	-9431
lerimin	-9432
leşiyor	-9433
lığında	-9434
lığıyla	-9435
mamışım	-9436
memişim	-9437
meyeyim	-9438
tasıyla	-9439
tikleri	-9440
tırıyor	-9441
uvarlak	-9442
verengi	-9443
üyorsun	-9444
ınızdan	-9445
ısından	-9446
ıyorsun	-9447
▁Altmış	-9448
▁Birisi	-9449
▁Budala	-9450
▁Buhara	-9451
▁Dirsek	-9452
▁Dımışk	-9453
▁Eliyle	-9454
▁Emrini	-9455
▁Etiyen	-9456
▁Evdeki	-9457
▁Gazete	-9458
▁Gönder	-9459
▁Kalede	-9460
▁Kaleyi	-9461
▁Kardeş	-9462
▁Keskin	-9463
▁Kocası	-9464
▁Kraliç	-9465
▁Mahkûm	-9466
▁Mektup	-9467
▁Melina	-9468
▁Memnun	-9469
▁Mermer	-9470
▁Müdafa	-9471
▁Onlara	-9472
▁Oradan	-9473
▁Oturdu	-9474
▁Sabaha	-9475
▁Sevinc	-9476
▁Sordum	-9477
▁Suriye	-9478
▁Tahsil	-9479
▁Yangın	-9480
▁acıyan	-9481
▁adalet	-9482
▁alnını	-9483
▁alırım	-9484
▁alıştı	-9485
▁annemi	-9486
▁aradım	-9487
▁arkası	-9488
▁atıyla	-9489
▁atıyor	-9490
▁azamet	-9491
▁azıcık	-9492
▁açmaya	-9493
▁açtığı	-9494
▁açıktı	-9495
▁babama	-9496
▁bakkal	-9497
▁başlam	-9498
▁beklem	-9499
▁beşyüz	-9500
▁bilmek	-9501
▁bitkin	-9502
▁biçare	-9503
▁bozgun	-9504
▁bulmaz	-9505
▁büklüm	-9506
▁cezası	-9507
▁damdan	-9508
▁davayı	-9509
▁dersin	-9510
▁dinley	-9511
▁dizine	-9512
▁dondur	-9513
▁durgun	-9514
▁dursun	-9515
▁düşünc	-9516
▁ecinni	-9517
▁edemem	-9518
▁edilen	-9519
▁elimin	-9520
▁emrini	-9521
▁esâtir	-9522
▁evimde	-9523
▁evleri	-9524
▁evliya	-9525
▁fabrik	-9526
▁feryat	-9527
▁fırlar	-9528
▁geçmek	-9529
▁geçmez	-9530
▁girdap	-9531
▁girmek	-9532
▁göller	-9533
▁gördür	-9534
▁hakiki	-9535
▁hanıma	-9536
▁hassas	-9537
▁hicran	-9538
▁hususi	-9539
▁hâkime	-9540
▁hırsla	-9541
▁imdada	-9542
▁iskarp	-9543
▁iskele	-9544
▁isteye	-9545
▁itimat	-9546
▁iyiydi	-9547
▁içerek	-9548
▁içiyor	-9549
▁işiten	-9550
▁işitil	-9551
▁işitir	-9552
▁kaldım	-9553
▁kapağı	-9554
▁kapıcı	-9555
▁kapıda	-9556
▁karlar	-9557
▁kavuğu	-9558
▁kayışı	-9559
▁kaşıdı	-9560
▁kelebe	-9561
▁kenarı	-9562
▁kerten	-9563
▁kitabı	-9564
▁kişiye	-9565
▁koydum	-9566
▁koyunu	-9567
▁kulağı	-9568
▁kundur	-9569
▁külbas	-9570
▁lisanı	-9571
▁maaşım	-9572
▁manevî	-9573
▁manzum	-9574
▁mefkur	-9575
▁mesela	-9576
▁mutlak	-9577
▁muztar	-9578
▁müsteh	-9579
▁müteah	-9580
▁müşkül	-9581
▁narayı	-9582
▁nikris	-9583
▁odadan	-9584
▁okumuş	-9585
▁olabil	-9586
▁olmaya	-9587
▁ortada	-9588
▁ortaya	-9589
▁pahalı	-9590
▁papaza	-9591
▁paşası	-9592
▁piyano	-9593
▁rehine	-9594
▁ressam	-9595
▁ruhumu	-9596
▁rüşvet	-9597
▁sakalı	-9598
▁saniye	-9599
▁sarılı	-9600
▁sarığı	-9601
▁saçlar	-9602
▁sağrıs	-9603
▁semavî	-9604
▁sermay	-9605
▁sevine	-9606
▁siyaha	-9607
▁sohbet	-9608
▁solmuş	-9609
▁sonsuz	-9610
▁sultan	-9611
▁sözünü	-9612
▁sürati	-9613
▁tabanc	-9614
▁taksim	-9615
▁tanesi	-9616
▁tebdil	-9617
▁tedbir	-9618
▁tehdit	-9619
▁tekâüt	-9620
▁terden	-9621
▁tertib	-9622
▁teşrif	-9623
▁topuzu	-9624
▁tufanı	-9625
▁tıknaz	-9626
▁ucunda	-9627
▁unuttu	-9628
▁uykuya	-9629
▁uyuyor	-9630
▁uçları	-9631
▁vermem	-9632
▁yazdır	-9633
▁yemeğe	-9634
▁yokmuş	-9635
▁yoğurt	-9636
▁yıkadı	-9637
▁yırtık	-9638
▁yığını	-9639
▁zararı	-9640
▁Çirkin	-9641
▁Çılgın	-9642
▁Önünde	-9643
▁âdetti	-9644
▁çapkın	-9645
▁çarpık	-9646
▁çağırt	-9647
▁çobanı	-9648
▁çıkmak	-9649
▁ürkmüş	-9650
▁üçüncü	-9651
▁İlerle	-9652
▁İçimde	-9653
▁Şirket	-9654
▁şahlan	-9655
▁şartla	-9656
▁şiirin	-9657
▁şimşek	-9658
Hayırdır	-9659
ceğinden	-9660
dadığını	-9661
ebilirim	-9662
ediyorum	-9663
elerinin	-9664
ememişti	-9665
ildiğini	-9666
larımdan	-9667
larımıza	-9668
lenmişti	-9669
lerimize	-9670
lıklarla	-9671
masından	-9672
melerini	-9673
mıyorsun	-9674
tiseptik	-9675
▁Akkovuk	-9676
▁Bahçeye	-9677
▁Bağırdı	-9678
▁Belgrad	-9679
▁Efendum	-9680
▁Erzurum	-9681
▁Gördüğü	-9682
▁Gülüyor	-9683
▁Hâlbuki	-9684
▁Kafdağı	-9685
▁Karımın	-9686
▁Kocaman	-9687
▁Kolunun	-9688
▁Korkunç	-9689
▁Kurumuş	-9690
▁Köydeki	-9691
▁Masanın	-9692
▁Muallim	-9693
▁Muhâsar	-9694
▁Onlarla	-9695
▁Ramazan	-9696
▁Sarardı	-9697
▁Sokullu	-9698
▁Söyleye	-9699
▁Sırmalı	-9700
▁Tekkesi	-9701
▁Temmuzu	-9702
▁Teselli	-9703
▁Yarabbi	-9704
▁Yerlere	-9705
▁abdesti	-9706
▁ahalisi	-9707
▁ahenkli	-9708
▁aklımda	-9709
▁alacalı	-9710
▁almıştı	-9711
▁altınla	-9712
▁anlatır	-9713
▁anlıyor	-9714
▁apartım	-9715
▁ararlar	-9716
▁arkadan	-9717
▁asırlık	-9718
▁ateşten	-9719
▁atmadan	-9720
▁aynıyla	-9721
▁açıkgöz	-9722
▁ağlamak	-9723
▁baharın	-9724
▁bahçede	-9725
▁bakındı	-9726
▁bankaya	-9727
▁beyazdı	-9728
▁beyazlı	-9729
▁bileyim	-9730
▁binanın	-9731
▁birinde	-9732
▁bulurum	-9733
▁bulutlu	-9734
▁burnunu	-9735
▁büyüktü	-9736
▁bırakır	-9737
▁cinsten	-9738
▁cıvıltı	-9739
▁dağılan	-9740
▁dekolte	-9741
▁delilik	-9742
▁derenin	-9743
▁dikildi	-9744
▁dolaşır	-9745
▁duyarım	-9746
▁duymadı	-9747
▁dönünce	-9748
▁düşürdü	-9749
▁ekmekle	-9750
▁elimden	-9751
▁elimize	-9752
▁esirlik	-9753
▁etmedim	-9754
▁etmekte	-9755
▁etmesin	-9756
▁ettiniz	-9757
▁evinden	-9758
▁galeyan	-9759
▁geceden	-9760
▁gençler	-9761
▁gerindi	-9762
▁getirin	-9763
▁geçecek	-9764
▁geçerek	-9765
▁geçince	-9766
▁geçmeye	-9767
▁gideriz	-9768
▁gideyim	-9769
▁gidince	-9770
▁girecek	-9771
▁girmedi	-9772
▁görecek	-9773
▁görüldü	-9774
▁görünür	-9775
▁götüren	-9776
▁göğsünü	-9777
▁havanın	-9778
▁havuzun	-9779
▁hepsine	-9780
▁heykeli	-9781
▁hisarın	-9782
▁hizmeti	-9783
▁hâkimin	-9784
▁hüzünlü	-9785
▁hıyanet	-9786
▁hıçkıra	-9787
▁iltifat	-9788
▁imtihan	-9789
▁intihar	-9790
▁isminde	-9791
▁istemey	-9792
▁istemiş	-9793
▁kadınla	-9794
▁kahvede	-9795
▁kaldığı	-9796
▁kalkmış	-9797
▁kalırdı	-9798
▁kandili	-9799
▁karımın	-9800
▁kayanın	-9801
▁kaybede	-9802
▁kaçarım	-9803
▁kaşları	-9804
▁kenarlı	-9805
▁keyifli	-9806
▁kişiyle	-9807
▁konuşan	-9808
▁koyarak	-9809
▁koynuna	-9810
▁köleler	-9811
▁köydeki	-9812
▁köyünde	-9813
▁köşkten	-9814
▁kılıçlı	-9815
▁kızının	-9816
▁kızıyla	-9817
▁liradan	-9818
▁malûmat	-9819
▁maroken	-9820
▁maskara	-9821
▁masrafı	-9822
▁maymunu	-9823
▁mazinin	-9824
▁mefkûre	-9825
▁mektebi	-9826
▁melâike	-9827
▁menkıbe	-9828
▁merakla	-9829
▁mesuttu	-9830
▁millete	-9831
▁muhalif	-9832
▁mutfağa	-9833
▁mutmain	-9834
▁mübalâğ	-9835
▁müessir	-9836
▁mühendi	-9837
▁mızrağı	-9838
▁naralar	-9839
▁nefsine	-9840
▁noktası	-9841
▁nümâyiş	-9842
▁odamıza	-9843
▁olmazdı	-9844
▁olurlar	-9845
▁ormanın	-9846
▁paradan	-9847
▁parasız	-9848
▁parladı	-9849
▁parmağı	-9850
▁payitah	-9851
▁planını	-9852
▁politik	-9853
▁ruhumda	-9854
▁rüzgarı	-9855
▁saattir	-9856
▁sallaya	-9857
▁sandığı	-9858
▁sarayın	-9859
▁saçarak	-9860
▁seccade	-9861
▁serveti	-9862
▁seyahat	-9863
▁seyirci	-9864
▁siyahlı	-9865
▁sormaya	-9866
▁sualine	-9867
▁sükûnet	-9868
▁süzülen	-9869
▁takarak	-9870
▁talihin	-9871
▁tanıdım	-9872
▁taşındı	-9873
▁taşıyor	-9874
▁tehlike	-9875
▁tehâlük	-9876
▁telâkki	-9877
▁tiksini	-9878
▁torbayı	-9879
▁torpido	-9880
▁tutuyor	-9881
▁tutuşan	-9882
▁tıraşlı	-9883
▁unutmak	-9884
▁uyanmış	-9885
▁uğrunda	-9886
▁yadigar	-9887
▁yalağın	-9888
▁yandaki	-9889
▁yapıldı	-9890
▁yatakta	-9891
▁yavrusu	-9892
▁yayıldı	-9893
▁yeniden	-9894
▁yolları	-9895
▁yürüyen	-9896
▁yürüyor	-9897
▁zaptiye	-9898
▁Çadırın	-9899
▁Ömründe	-9900
▁âlemdir	-9901
▁çalmaya	-9902
▁çekerek	-9903
▁çekişen	-9904
▁öldüren	-9905
▁ölümünü	-9906
▁öğretti	-9907
▁İstemem	-9908
▁Şimdiye	-9909
▁şairler	-9910
▁şehirde	-9911
Kızılelma	-9912
alarımızı	-9913
amadığını	-9914
amıyorlar	-9915
eceklerdi	-9916
elerimizi	-9917
landığını	-9918
leniyordu	-9919
luklarını	-9920
mayacaktı	-9921
sizlikten	-9922
▁Ağlamaya	-9923
▁Bahçenin	-9924
▁Cebinden	-9925
▁Dünyanın	-9926
▁Etrafına	-9927
▁Gelibolu	-9928
▁Gözlerim	-9929
▁Karısını	-9930
▁Korkudan	-9931
▁Köpekler	-9932
▁Küçükken	-9933
▁Mektepte	-9934
▁Mübalağa	-9935
▁Petonleç	-9936
▁Safların	-9937
▁Söylemem	-9938
▁Sırtında	-9939
▁Türklüğe	-9940
▁Yirminci	-9941
▁Yıllarca	-9942
▁acıyordu	-9943
▁aklından	-9944
▁akrabası	-9945
▁alamıyor	-9946
▁aldıktan	-9947
▁aldığını	-9948
▁alıyordu	-9949
▁anarşist	-9950
▁arkamdan	-9951
▁arzusunu	-9952
▁arıyordu	-9953
▁asabileş	-9954
▁atlarını	-9955
▁atılacak	-9956
▁atılıyor	-9957
▁ayakkabı	-9958
▁ayrıldım	-9959
▁bahseder	-9960
▁bahsetti	-9961
▁balkonun	-9962
▁bağlamış	-9963
▁belediye	-9964
▁belinden	-9965
▁bilhassa	-9966
▁bilmeyen	-9967
▁biçimsiz	-9968
▁bombanın	-9969
▁büsbütün	-9970
▁bırakmak	-9971
▁dedikodu	-9972
▁dediğini	-9973
▁demirden	-9974
▁derhatır	-9975
▁değildim	-9976
▁dinleyen	-9977
▁dişbudak	-9978
▁duvarlar	-9979
▁düzenini	-9980
▁düşmemek	-9981
▁düşünmek	-9982
▁ebediyet	-9983
▁edemedim	-9984
▁emrinden	-9985
▁emsalsiz	-9986
▁etmezler	-9987
▁etmişler	-9988
▁ettiğimi	-9989
▁evvelden	-9990
▁eyvallah	-9991
▁eğilerek	-9992
▁fasılalı	-9993
▁fırlattı	-9994
▁getirdim	-9995
▁geçirmiş	-9996
▁geçmişti	-9997
▁girerken	-9998
▁girmedim	-9999
▁giydirdi	-10000
▁gördünüz	-10001
▁gördüğün	-10002
▁gösteren	-10003
▁götürmek	-10004
▁gözlüklü	-10005
▁hakareti	-10006
▁hareketi	-10007
▁hatırlar	-10008
▁hayalime	-10009
▁hayalini	-10010
▁haykırır	-10011
▁heyecana	-10012
▁hiddetle	-10013
▁hiddetli	-10014
▁hissetti	-10015
▁hükümete	-10016
▁hümâyunu	-10017
▁ihtiyari	-10018
▁insanlık	-10019
▁istirham	-10020
▁kaldırım	-10021
▁kaldırıp	-10022
▁kaldırır	-10023
▁kalkanlı	-10024
▁kanepeye	-10025
▁kanununu	-10026
▁kapansın	-10027
▁kardeşim	-10028
▁karların	-10029
▁karısına	-10030
▁karşımda	-10031
▁kavuğunu	-10032
▁kaybolur	-10033
▁kethüdâs	-10034
▁kimsesiz	-10035
▁kitaplar	-10036
▁korkarak	-10037
▁kudurmuş	-10038
▁kurtulan	-10039
▁kurulmuş	-10040
▁köpekler	-10041
▁köylerde	-10042
▁kümeleri	-10043
▁kırılmış	-10044
▁lambanın	-10045
▁makinesi	-10046
▁meşguldü	-10047
▁muhabere	-10048
▁muharrir	-10049
▁muhâsara	-10050
▁muzaffer	-10051
▁müfettiş	-10052
▁müşahede	-10053
▁namusuna	-10054
▁okuyarak	-10055
▁ordugâha	-10056
▁oturalım	-10057
▁parçalar	-10058
▁perestiş	-10059
▁riyâziye	-10060
▁rüzgarın	-10061
▁saatleri	-10062
▁sahifeyi	-10063
▁sandığım	-10064
▁sarmıştı	-10065
▁sekizyüz	-10066
▁seyreder	-10067
▁sokaklar	-10068
▁sonbahar	-10069
▁sordular	-10070
▁suallere	-10071
▁söyleyen	-10072
▁sürdüler	-10073
▁tavrıyla	-10074
▁taşıdığı	-10075
▁tecessüs	-10076
▁tepesine	-10077
▁torununa	-10078
▁tutmuştu	-10079
▁türbenin	-10080
▁unutuyor	-10081
▁vazgeçti	-10082
▁vermiyor	-10083
▁yapmıştı	-10084
▁yarısına	-10085
▁yatağına	-10086
▁yaşamaya	-10087
▁yaşarsın	-10088
▁yemeğini	-10089
▁yorulmuş	-10090
▁yükseldi	-10091
▁Çocuklar	-10092
▁Ölünceye	-10093
▁âlicenap	-10094
▁çadırlar	-10095
▁çadırına	-10096
▁çalıştım	-10097
▁çarşıdan	-10098
▁çavuşlar	-10099
▁çağırdım	-10100
▁çekmişti	-10101
▁çiçekler	-10102
▁önlerine	-10103
▁ötüyordu	-10104
▁öğrendim	-10105
▁İslamlık	-10106
▁Şiddetli	-10107
▁şaşırttı	-10108
▁şefkatli	-10109
abileceğim	-10110
lıklarıyla	-10111
ısmarladık	-10112
▁Andrenaki	-10113
▁Ağaçların	-10114
▁Birbirine	-10115
▁Görüyorum	-10116
▁Haydutlar	-10117
▁Kendisine	-10118
▁Kıraathan	-10119
▁angaryacı	-10120
▁anlamadım	-10121
▁anlamıyor	-10122
▁anlıyordu	-10123
▁bakakaldı	-10124
▁baktığını	-10125
▁bastonunu	-10126
▁bayrağına	-10127
▁birisiyle	-10128
▁birleştir	-10129
▁burçların	-10130
▁bırakarak	-10131
▁bırakmadı	-10132
▁bırakıyor	-10133
▁canlanmış	-10134
▁canlarını	-10135
▁cariyeler	-10136
▁dalgaları	-10137
▁devletine	-10138
▁diyebildi	-10139
▁dumanları	-10140
▁durduğunu	-10141
▁duyuyorum	-10142
▁düşmandan	-10143
▁düşünürdü	-10144
▁ediyorlar	-10145
▁efendinin	-10146
▁ekşiterek	-10147
▁erkeklere	-10148
▁esvapları	-10149
▁etmiyordu	-10150
▁ettikleri	-10151
▁fasılasız	-10152
▁gazilerin	-10153
▁gecelerin	-10154
▁geceleyin	-10155
▁gecesiydi	-10156
▁getirerek	-10157
▁getirince	-10158
▁görmekten	-10159
▁gösterdim	-10160
▁göstermek	-10161
▁haysiyeti	-10162
▁hepsinden	-10163
▁heyecanla	-10164
▁hiddetlen	-10165
▁hizmetini	-10166
▁hiçbirisi	-10167
▁hükümetin	-10168
▁hırsızlık	-10169
▁ihtiyacım	-10170
▁ihtiyardı	-10171
▁inanılmaz	-10172
▁insanları	-10173
▁istemiyor	-10174
▁isteyerek	-10175
▁içiyorlar	-10176
▁kahvesine	-10177
▁kalacaktı	-10178
▁kaldırmak	-10179
▁kaldırmış	-10180
▁kalmıştık	-10181
▁kandırdım	-10182
▁kanepenin	-10183
▁kanlarını	-10184
▁karısıyla	-10185
▁kaybetmiş	-10186
▁kaçıyordu	-10187
▁kemikleri	-10188
▁kendileri	-10189
▁kendinden	-10190
▁kollarımı	-10191
▁kopardığı	-10192
▁kucakladı	-10193
▁kurtarıcı	-10194
▁külhanbey	-10195
▁kırpmadan	-10196
▁muhayyile	-10197
▁mütereddi	-10198
▁noktasına	-10199
▁olacaktım	-10200
▁ormanının	-10201
▁perdeleri	-10202
▁resimleri	-10203
▁revolveri	-10204
▁rüyasında	-10205
▁sahipleri	-10206
▁sanıyorum	-10207
▁satırları	-10208
▁selamladı	-10209
▁sevdasına	-10210
▁seviniyor	-10211
▁sevinçten	-10212
▁susuyordu	-10213
▁sıkıntısı	-10214
▁taşıyordu	-10215
▁toplarını	-10216
▁topçubaşı	-10217
▁unutulmuş	-10218
▁vereceğiz	-10219
▁vicdanını	-10220
▁yakışıklı	-10221
▁yanıyordu	-10222
▁yapacaktı	-10223
▁yapyalnız	-10224
▁yapılacak	-10225
▁yerlerine	-10226
▁yorgunluk	-10227
▁yüzlerini	-10228
▁yüzükoyun	-10229
▁çalıyordu	-10230
▁çavuşları	-10231
▁çıkarıyor	-10232
▁örtüyordu	-10233
▁şaşaladım	-10234
▁Alâüddevle	-10235
▁Göreceksin	-10236
▁Magdacığım	-10237
▁Meşrutiyet	-10238
▁Nihayetsiz	-10239
▁Pencereden	-10240
▁Verdikleri	-10241
▁alamıyordu	-10242
▁anlamadığı	-10243
▁anlatılmaz	-10244
▁aralarında	-10245
▁askerlerin	-10246
▁aydınlıkla	-10247
▁bağırdılar	-10248
▁biriktirdi	-10249
▁bozulmuştu	-10250
▁bulacaksın	-10251
▁bulamazlar	-10252
▁bırakmıştı	-10253
▁bıraktılar	-10254
▁cehennemin	-10255
▁cesaretini	-10256
▁durmuyordu	-10257
▁duvarların	-10258
▁düşündükçe	-10259
▁düşünürken	-10260
▁edemiyordu	-10261
▁ehemmiyeti	-10262
▁fedakarlık	-10263
▁fırtınanın	-10264
▁getirdiler	-10265
▁gidecektim	-10266
▁göndermeye	-10267
▁gördüğünüz	-10268
▁göremediği	-10269
▁görülmemiş	-10270
▁götürdüler	-10271
▁gözlerinde	-10272
▁güllesiyle	-10273
▁gülümseyen	-10274
▁gülümsüyor	-10275
▁hatırladım	-10276
▁haykırarak	-10277
▁hayvanları	-10278
▁heyecandan	-10279
▁insanların	-10280
▁intizamsız	-10281
▁istediğimi	-10282
▁işaretleri	-10283
▁işitiyordu	-10284
▁kalabalığı	-10285
▁kalkanları	-10286
▁kalkıyordu	-10287
▁kaplıyordu	-10288
▁kavimlerin	-10289
▁kaşlarının	-10290
▁kethüdânın	-10291
▁konuşamadı	-10292
▁kurulmuştu	-10293
▁külhanbeyi	-10294
▁küçülterek	-10295
▁kızlarının	-10296
▁memurların	-10297
▁mevcudiyet	-10298
▁milletleri	-10299
▁muharipler	-10300
▁mâbedinizi	-10301
▁müteheyyic	-10302
▁müteverrim	-10303
▁nöbetçiler	-10304
▁olduğumuzu	-10305
▁parmağıyla	-10306
▁sanıyordum	-10307
▁sanıyorlar	-10308
▁sarsıyordu	-10309
▁seyrederek	-10310
▁söylediler	-10311
▁söyleyecek	-10312
▁söyleyince	-10313
▁tepesinden	-10314
▁tercümanla	-10315
▁uçuşuyordu	-10316
▁vermiyordu	-10317
▁vücudundan	-10318
▁yerlerinde	-10319
▁yükseliyor	-10320
▁zincirleri	-10321
▁çağlayanın	-10322
▁çiftliğini	-10323
▁ümitsizlik	-10324
▁ürpertecek	-10325
▁İngilizler	-10326
▁Avrupalılar	-10327
▁Bulgaristan	-10328
▁Dudaklarını	-10329
▁Korkmayınız	-10330
▁Müslümanlar	-10331
▁andırıyordu	-10332
▁asilzâdeler	-10333
▁bacaklarına	-10334
▁bacaklarını	-10335
▁başladığını	-10336
▁bulamıyordu	-10337
▁bulunuyordu	-10338
▁bıyıklarını	-10339
▁ediyorsunuz	-10340
▁ehemmiyetle	-10341
▁eğlenceleri	-10342
▁getiriyordu	-10343
▁gölgelerini	-10344
▁gönderseydi	-10345
▁gürültüleri	-10346
▁güzelleştir	-10347
▁güzellikten	-10348
▁güzelliğine	-10349
▁hanımefendi	-10350
▁hazırlanmış	-10351
▁istemiyorum	-10352
▁kalabalıktı	-10353
▁kendisinden	-10354
▁kollarından	-10355
▁kuvvetliydi	-10356
▁kümelerinin	-10357
▁matemlerini	-10358
▁memleketine	-10359
▁milletlerin	-10360
▁muhafızları	-10361
▁mütemadiyen	-10362
▁olduklarını	-10363
▁olmayacaktı	-10364
▁omuzlarının	-10365
▁oturdukları	-10366
▁palabıyıklı	-10367
▁silahlarını	-10368
▁söylediğimi	-10369
▁söylüyorlar	-10370
▁yaklaştıkça	-10371
▁yeniçeriler	-10372
▁çoraplarını	-10373
▁öldüreceğim	-10374
▁bacaklarının	-10375
▁dolduruyordu	-10376
▁geliyorlardı	-10377
▁gidiyorlardı	-10378
▁gördüklerini	-10379
▁hatırlıyorum	-10380
▁haykırıyordu	-10381
▁hıçkırıyordu	-10382
▁inanamıyordu	-10383
▁kadınlığının	-10384
▁karanlıkları	-10385
▁kendileriyle	-10386
▁kethüdâsıyla	-10387
▁konuşuyorlar	-10388
▁kıvranıyordu	-10389
▁memleketinde	-10390
▁muvaffakiyet	-10391
▁veriyorlardı	-10392
▁çocuklarının	-10393
▁Müslümanların	-10394
▁bilmiyorsunuz	-10395
▁birbirleriyle	-10396
▁havlıyorlardı	-10397
▁hissediyordum	-10398
▁kahramanların	-10399
▁kertenkeleler	-10400
▁kuvvetleriyle	-10401
▁nihayetindeki	-10402
▁sıkıntısından	-10403
▁yapacaklarını	-10404
▁çerçevesinden	-10405
▁arkadaşlarının	-10406
▁bağırışıyorlar	-10407
▁gülüşüyorlardı	-10408
▁merdivenlerden	-10409
▁soğukkanlılıkla	-10410
!,	-10411
!’	-10412
"'	-10413
Ey	-10414
Oh	-10415
dr	-10416
gu	-10417
hu	-10418
hü	-10419
nû	-10420
pe	-10421
sî	-10422
zâ	-10423
zı	-10424
âc	-10425
âp	-10426
îb	-10427
îş	-10428
öb	-10429
ûh	-10430
ûr	-10431
İş	-10432
ıf	-10433
▁3	-10434
▁7	-10435
Ama	-10436
Boz	-10437
Dün	-10438
Est	-10439
Gel	-10440
Git	-10441
Gön	-10442
Göz	-10443
Her	-10444
Mes	-10445
Sen	-10446
Ser	-10447
Yar	-10448
ahz	-10449
amn	-10450
avr	-10451
baa	-10452
bik	-10453
bre	-10454
cet	-10455
ddü	-10456
diy	-10457
diz	-10458
dös	-10459
elm	-10460
emb	-10461
est	-10462
eyl	-10463
eyz	-10464
eçe	-10465
gut	-10466
guç	-10467
guş	-10468
hik	-10469
his	-10470
hit	-10471
int	-10472
ipi	-10473
isî	-10474
ivi	-10475
izm	-10476
kik	-10477
kum	-10478
lok	-10479
mle	-10480
muh	-10481
nün	-10482
nıç	-10483
onj	-10484
rof	-10485
rıf	-10486
rın	-10487
sir	-10488
stu	-10489
sup	-10490
taj	-10491
tam	-10492
tez	-10493
tma	-10494
ttü	-10495
ula	-10496
uvv	-10497
uşu	-10498
val	-10499
lûp	-10500
vey	-10501
vir	-10502
yak	-10503
yam	-10504
yum	-10505
zim	-10506
ziz	-10507
âli	-10508
âlî	-10509
ârî	-10510
âşâ	-10511
çik	-10512
üde	-10513
ükr	-10514
ükû	-10515
ürt	-10516
ğen	-10517
ğun	-10518
İst	-10519
şiş	-10520
şır	-10521
▁13	-10522
▁Dö	-10523
▁Mâ	-10524
▁Pi	-10525
▁Te	-10526
▁Uf	-10527
▁Va	-10528
▁bl	-10529
▁so	-10530
▁zî	-10531
▁«1	-10532
▁Ör	-10533
▁Öz	-10534
▁Üş	-10535
▁öv	-10536
▁ül	-10537
▁üt	-10538
▁İf	-10539
▁İr	-10540
▁İt	-10541
▁ın	-10542
?..”	-10543
Bana	-10544
Eman	-10545
Gece	-10546
Salâ	-10547
abey	-10548
acar	-10549
acın	-10550
adok	-10551
ahri	-10552
akıl	-10553
alük	-10554
amal	-10555
amat	-10556
ancı	-10557
arya	-10558
atil	-10559
avar	-10560
avul	-10561
ayda	-10562
ayıp	-10563
ayış	-10564
açlı	-10565
bası	-10566
berg	-10567
bini	-10568
ceki	-10569
cığı	-10570
dana	-10571
datı	-10572
dağa	-10573
dere	-10574
dine	-10575
dire	-10576
dâdı	-10577
dört	-10578
ebbu	-10579
edef	-10580
ehdi	-10581
ekli	-10582
ekân	-10583
elif	-10584
elil	-10585
emsi	-10586
enas	-10587
ende	-10588
enen	-10589
eral	-10590
erru	-10591
etre	-10592
fass	-10593
gele	-10594
günü	-10595
haba	-10596
iber	-10597
iddî	-10598
ikây	-10599
!!!	-10600
anyo	-10601
gamb	-10602
ilel	-10603
iran	-10604
isal	-10605
iser	-10606
itli	-10607
itor	-10608
kini	-10609
lacı	-10610
lesi	-10611
leyi	-10612
lisi	-10613
liye	-10614
lâhi	-10615
lâve	-10616
masa	-10617
mere	-10618
mine	-10619
nevî	-10620
nuna	-10621
odot	-10622
olik	-10623
omuz	-10624
opag	-10625
ozof	-10626
pata	-10627
rarı	-10628
reli	-10629
rine	-10630
rucu	-10631
rübe	-10632
rısı	-10633
sede	-10634
sunu	-10635
sıkı	-10636
tabi	-10637
tiha	-10638
tisi	-10639
tris	-10640
tunî	-10641
tüst	-10642
tıma	-10643
tına	-10644
udun	-10645
uklu	-10646
uruç	-10647
usya	-10648
uzuz	-10649
uşeb	-10650
yana	-10651
zade	-10652
âhat	-10653
âkıa	-10654
ânib	-10655
ânik	-10656
çeli	-10657
çiye	-10658
çlık	-10659
öble	-10660
ücut	-10661
üdün	-10662
üdür	-10663
ükte	-10664
üküm	-10665
üşte	-10666
İşte	-10667
ıran	-10668
ısız	-10669
ıyız	-10670
▁?..	-10671
▁Ada	-10672
▁Aln	-10673
▁Ana	-10674
▁Arz	-10675
▁Beğ	-10676
▁Biç	-10677
▁Bol	-10678
▁Bre	-10679
▁Büf	-10680
▁Cin	-10681
▁Day	-10682
▁Dağ	-10683
▁Def	-10684
▁Dip	-10685
▁Diğ	-10686
▁Dol	-10687
▁Duy	-10688
▁Ete	-10689
▁Faz	-10690
▁Fec	-10691
▁Fik	-10692
▁Fır	-10693
▁Ger	-10694
▁Gid	-10695
▁Güç	-10696
▁Hol	-10697
▁Kel	-10698
▁Kor	-10699
Elma	-10700
nâme	-10701
sona	-10702
sıme	-10703
▁191	-10704
▁Küm	-10705
▁Lim	-10706
▁Lüt	-10707
▁Man	-10708
▁Mağ	-10709
▁Med	-10710
▁Mez	-10711
▁Meç	-10712
▁Mil	-10713
▁Muv	-10714
▁Mük	-10715
▁Nez	-10716
▁Niş	-10717
▁Red	-10718
▁Sal	-10719
▁Say	-10720
▁Sey	-10721
▁Sis	-10722
▁Som	-10723
▁Söy	-10724
▁Sıv	-10725
▁Toy	-10726
▁Tür	-10727
▁Uğr	-10728
▁Vah	-10729
▁Vat	-10730
▁Ven	-10731
▁Yal	-10732
▁Yam	-10733
▁Yaş	-10734
▁Yem	-10735
▁Yoğ	-10736
▁Yum	-10737
▁Zül	-10738
▁adr	-10739
▁alb	-10740
▁atf	-10741
▁ayı	-10742
▁azm	-10743
▁bec	-10744
▁beh	-10745
▁bür	-10746
▁cur	-10747
▁duv	-10748
▁dâr	-10749
▁ecz	-10750
▁ele	-10751
▁elâ	-10752
▁esb	-10753
▁fan	-10754
▁fet	-10755
▁fez	-10756
▁fit	-10757
▁fiş	-10758
▁fık	-10759
▁gan	-10760
▁göç	-10761
▁had	-10762
▁hit	-10763
▁hor	-10764
▁hus	-10765
▁ini	-10766
▁izi	-10767
▁keb	-10768
▁kib	-10769
▁köt	-10770
▁lâk	-10771
▁mod	-10772
▁müb	-10773
▁mıh	-10774
▁mın	-10775
▁naf	-10776
▁not	-10777
▁num	-10778
▁nâz	-10779
▁nüf	-10780
▁por	-10781
▁pür	-10782
▁raz	-10783
▁ric	-10784
▁sul	-10785
▁sım	-10786
▁tur	-10787
▁tuv	-10788
▁tûf	-10789
▁tüt	-10790
▁tıl	-10791
▁tım	-10792
▁tığ	-10793
▁yed	-10794
▁yes	-10795
▁zat	-10796
▁zav	-10797
▁zeb	-10798
▁zuh	-10799
que	-10800
▁Çek	-10801
▁Çin	-10802
▁Çiç	-10803
▁âlî	-10804
▁çay	-10805
▁çul	-10806
▁Şap	-10807
▁Şim	-10808
▁Şur	-10809
▁şaf	-10810
▁şam	-10811
!..."	-10812
Benim	-10813
Bütün	-10814
Büyük	-10815
Dünya	-10816
Hemen	-10817
Tarih	-10818
abaşı	-10819
abbim	-10820
accüp	-10821
afran	-10822
allat	-10823
almış	-10824
ambak	-10825
amsız	-10826
ancur	-10827
asbus	-10828
assut	-10829
assüs	-10830
atlar	-10831
atını	-10832
aydın	-10833
ağımı	-10834
beden	-10835
beral	-10836
bihal	-10837
bizim	-10838
büyük	-10839
cinin	-10840
ciğin	-10841
cuğum	-10842
cüler	-10843
diğin	-10844
dülil	-10845
ebbet	-10846
eddin	-10847
edini	-10848
ediye	-10849
ekkil	-10850
elbah	-10851
eller	-10852
emizi	-10853
encer	-10854
enden	-10855
endim	-10856
enizi	-10857
erret	-10858
essüf	-10859
etmek	-10860
evvuk	-10861
eçeni	-10862
eşrif	-10863
fetti	-10864
halde	-10865
hayat	-10866
ilini	-10867
imeti	-10868
imine	-10869
iyesi	-10870
iyeye	-10871
izden	-10872
kenin	-10873
larar	-10874
latan	-10875
leden	-10876
letti	-10877
linin	-10878
liyim	-10879
lüğün	-10880
lıkta	-10881
mandı	-10882
namus	-10883
nunun	-10884
osuna	-10885
panya	-10886
right	-10887
rikat	-10888
rında	-10889
saray	-10890
selâm	-10891
sünüz	-10892
sürdü	-10893
tanat	-10894
tarih	-10895
taydı	-10896
tenin	-10897
terek	-10898
tidar	-10899
tiyaz	-10900
tiyor	-10901
tunuz	-10902
tıraş	-10903
ungur	-10904
unuzu	-10905
urdum	-10906
urunu	-10907
vasız	-10908
vetli	-10909
vinur	-10910
zeniş	-10911
âhutî	-10912
âları	-10913
âsını	-10914
çinin	-10915
çiydi	-10916
örüğe	-10917
ülfün	-10918
ümüze	-10919
üphem	-10920
ılsın	-10921
ılığı	-10922
ımaya	-10923
ındık	-10924
▁Adım	-10925
▁Adın	-10926
▁Aley	-10927
▁Asya	-10928
▁Avlu	-10929
▁Ayas	-10930
▁Ayda	-10931
▁Aynı	-10932
▁Aşkı	-10933
▁Aşçı	-10934
▁Bali	-10935
▁Beyn	-10936
▁Bing	-10937
▁Buyr	-10938
▁Cenk	-10939
▁Ceza	-10940
▁Dere	-10941
▁Dolu	-10942
▁Eğil	-10943
▁Fena	-10944
▁Garp	-10945
▁Gölg	-10946
▁Göst	-10947
▁Hain	-10948
▁Herk	-10949
▁Ilık	-10950
▁Kahy	-10951
▁Kalb	-10952
▁Kele	-10953
▁Kula	-10954
▁Kâbe	-10955
▁Lida	-10956
▁Maaş	-10957
▁Mand	-10958
▁Mazi	-10959
▁Must	-10960
▁Mızr	-10961
▁Neyi	-10962
▁Odun	-10963
▁Okum	-10964
▁Onca	-10965
▁Orta	-10966
▁Oğlu	-10967
▁Prof	-10968
▁Sene	-10969
▁Sert	-10970
▁Taht	-10971
▁Tayy	-10972
▁Terk	-10973
▁Tolg	-10974
▁Utan	-10975
▁Veda	-10976
▁aban	-10977
▁abus	-10978
▁aciz	-10979
▁acır	-10980
▁adal	-10981
▁adil	-10982
▁afal	-10983
▁ahir	-10984
▁amel	-10985
▁anam	-10986
▁aran	-10987
▁atar	-10988
▁azal	-10989
▁azar	-10990
▁açan	-10991
▁açıp	-10992
▁aşağ	-10993
▁bakk	-10994
▁balt	-10995
▁başa	-10996
▁beze	-10997
▁bıyı	-10998
▁cami	-10999
▁dama	-11000
▁darb	-11001
▁dert	-11002
▁dize	-11003
▁eflâ	-11004
▁ekşi	-11005
▁elde	-11006
▁elim	-11007
▁elin	-11008
▁elle	-11009
▁emre	-11010
▁eriş	-11011
▁esat	-11012
▁esîr	-11013
▁etse	-11014
▁ezan	-11015
▁faal	-11016
▁faci	-11017
▁farz	-11018
▁fert	-11019
▁feth	-11020
▁gaga	-11021
▁gara	-11022
▁gark	-11023
▁gaza	-11024
▁gaşy	-11025
▁gene	-11026
▁güle	-11027
▁günd	-11028
▁güne	-11029
▁güya	-11030
▁hale	-11031
▁halt	-11032
▁hend	-11033
▁iade	-11034
▁iliş	-11035
▁ilti	-11036
▁inci	-11037
▁ismi	-11038
▁itil	-11039
▁jimn	-11040
▁kaid	-11041
▁kana	-11042
▁kanı	-11043
▁kart	-11044
▁kata	-11045
▁katı	-11046
▁kavg	-11047
▁kazı	-11048
▁kerv	-11049
▁kuvv	-11050
▁kâin	-11051
▁kâğı	-11052
▁kürk	-11053
▁kıvr	-11054
▁lema	-11055
▁lütf	-11056
▁maks	-11057
▁mark	-11058
▁masa	-11059
▁mebz	-11060
▁meft	-11061
▁meze	-11062
▁meşe	-11063
▁mihr	-11064
▁nail	-11065
▁nara	-11066
▁nehr	-11067
▁nevi	-11068
▁okun	-11069
▁olma	-11070
▁orad	-11071
▁pala	-11072
▁pemb	-11073
▁raks	-11074
▁rakı	-11075
▁refî	-11076
▁sarf	-11077
▁sarm	-11078
▁serp	-11079
▁sivr	-11080
▁sulu	-11081
▁suni	-11082
▁sunî	-11083
▁tayı	-11084
▁teke	-11085
▁ters	-11086
▁teyz	-11087
▁tipi	-11088
▁ulus	-11089
▁ulûm	-11090
▁usta	-11091
▁vecd	-11092
▁vess	-11093
▁yana	-11094
▁yang	-11095
▁yanı	-11096
▁yaya	-11097
▁yaşı	-11098
▁yurt	-11099
▁zabı	-11100
▁zekâ	-11101
▁Ömer	-11102
▁ârif	-11103
▁çark	-11104
▁çivi	-11105
▁çiğn	-11106
▁ölür	-11107
▁ölüs	-11108
▁ömrü	-11109
▁ötüş	-11110
▁özgü	-11111
▁ülen	-11112
▁İdar	-11113
▁İddi	-11114
▁Şaka	-11115
▁şahi	-11116
▁şaka	-11117
▁şems	-11118
▁şenî	-11119
▁şifa	-11120
▁şilt	-11121
▁şâir	-11122
▁şükr	-11123
Gönder	-11124
Salâtü	-11125
Yolunu	-11126
abancı	-11127
acıkta	-11128
acının	-11129
acığım	-11130
adığım	-11131
alalık	-11132
amadan	-11133
amayız	-11134
aneler	-11135
arının	-11136
arıyla	-11137
ayayım	-11138
ağalar	-11139
aşmaya	-11140
biyatı	-11141
ceğimi	-11142
damaya	-11143
durlar	-11144
duğumu	-11145
dükten	-11146
düktör	-11147
dıktan	-11148
edecek	-11149
ederek	-11150
ediğin	-11151
elenen	-11152
esidir	-11153
eğinde	-11154
eğinin	-11155
fassal	-11156
hikâye	-11157
irdiği	-11158
itores	-11159
ladığı	-11160
lamayı	-11161
lanmak	-11162
lardır	-11163
lemeli	-11164
lettim	-11165
liktir	-11166
luğumu	-11167
mazdım	-11168
mazsan	-11169
meleri	-11170
muşlar	-11171
mıştık	-11172
ometre	-11173
ramaya	-11174
resede	-11175
retmiş	-11176
saydım	-11177
sinler	-11178
sınlar	-11179
tirdim	-11180
tirmek	-11181
uların	-11182
uncaya	-11183
ununca	-11184
unuzun	-11185
unyalı	-11186
urunda	-11187
uğunun	-11188
verdim	-11189
vesine	-11190
vetmek	-11191
yetize	-11192
çıları	-11193
ükümet	-11194
ğımızı	-11195
ılmadı	-11196
ılırsa	-11197
ımarık	-11198
ınınca	-11199
ısının	-11200
ıyarak	-11201
ığının	-11202
▁Acele	-11203
▁Aklın	-11204
▁Altın	-11205
▁Açlık	-11206
▁Bağır	-11207
▁Bence	-11208
▁Beyin	-11209
▁Bulut	-11210
▁Camii	-11211
▁Cesur	-11212
▁Câbir	-11213
▁Dayım	-11214
▁Demiş	-11215
▁Dinle	-11216
▁Dîvân	-11217
▁Elbet	-11218
▁Elime	-11219
▁Erzak	-11220
▁Fakir	-11221
▁Filan	-11222
▁Gazin	-11223
▁Gider	-11224
▁Girit	-11225
▁Gitti	-11226
▁Gözle	-11227
▁Göğün	-11228
▁Hacca	-11229
▁Hadım	-11230
▁Haliç	-11231
▁Hamza	-11232
▁Harbi	-11233
▁Huruç	-11234
▁Hâkim	-11235
▁Hücum	-11236
▁Hızır	-11237
▁Kalab	-11238
▁Kanep	-11239
▁Karag	-11240
▁Kerim	-11241
▁Kesik	-11242
▁Kimin	-11243
▁Kirli	-11244
▁Kocam	-11245
▁Kralı	-11246
▁Kucağ	-11247
▁Kâğıt	-11248
▁Köyde	-11249
▁Köşke	-11250
▁Külah	-11251
▁Kımıl	-11252
▁Macar	-11253
▁Martı	-11254
▁Mebus	-11255
▁Mesut	-11256
▁Muhit	-11257
▁Mösyö	-11258
▁Münas	-11259
▁Nazik	-11260
▁Nöbet	-11261
▁Odama	-11262
▁Oraya	-11263
▁Perde	-11264
▁Prens	-11265
▁Sanat	-11266
▁Semen	-11267
▁Sigar	-11268
▁Sizde	-11269
▁Sofya	-11270
▁Surat	-11271
▁Süzun	-11272
▁Sırat	-11273
▁Sırma	-11274
▁Tunus	-11275
▁Vakıa	-11276
▁Vatan	-11277
▁Yahya	-11278
▁Yatsı	-11279
▁Yolun	-11280
▁Zabit	-11281
▁Zorla	-11282
▁acemi	-11283
▁adedi	-11284
▁afyon	-11285
▁ahbap	-11286
▁aktör	-11287
▁alayı	-11288
▁almam	-11289
▁aptes	-11290
▁artan	-11291
▁arzum	-11292
▁arşın	-11293
▁attır	-11294
▁açmak	-11295
▁açmış	-11296
▁ağzım	-11297
▁aşkla	-11298
▁aşırı	-11299
▁babay	-11300
▁badem	-11301
▁bakma	-11302
▁bakır	-11303
▁barın	-11304
▁barış	-11305
▁batın	-11306
▁başım	-11307
▁bebek	-11308
▁bence	-11309
▁beyit	-11310
▁biber	-11311
▁biner	-11312
▁binin	-11313
▁biten	-11314
▁bozar	-11315
▁bozdu	-11316
▁boğuş	-11317
▁boşam	-11318
▁boştu	-11319
▁bucak	-11320
▁budal	-11321
▁buluş	-11322
▁burda	-11323
▁börek	-11324
▁bükük	-11325
▁büyüğ	-11326
▁canın	-11327
▁ceket	-11328
▁cesim	-11329
▁coştu	-11330
▁dayar	-11331
▁dekor	-11332
▁delir	-11333
▁değer	-11334
▁diplo	-11335
▁diyar	-11336
▁donat	-11337
▁donup	-11338
▁doğal	-11339
▁duygu	-11340
▁döner	-11341
▁düşük	-11342
▁edici	-11343
▁ermez	-11344
▁eseri	-11345
▁evler	-11346
▁ezici	-11347
▁fasul	-11348
▁fayda	-11349
▁fikri	-11350
▁filân	-11351
▁füsun	-11352
▁fırın	-11353
▁gaile	-11354
▁gecik	-11355
▁gelme	-11356
▁geyik	-11357
▁geçiş	-11358
▁giril	-11359
▁gitse	-11360
▁giyen	-11361
▁görüp	-11362
▁gözde	-11363
▁gözün	-11364
▁göğün	-11365
▁gübre	-11366
▁güreş	-11367
▁güven	-11368
▁hadis	-11369
▁hafız	-11370
▁haini	-11371
▁hapis	-11372
▁haris	-11373
▁harit	-11374
▁hariç	-11375
▁hattı	-11376
▁helâl	-11377
▁heybe	-11378
▁heyet	-11379
▁hikay	-11380
▁himay	-11381
▁hocam	-11382
▁hokka	-11383
▁hukuk	-11384
▁hulûl	-11385
▁huzuz	-11386
▁hârel	-11387
▁ibret	-11388
▁ifade	-11389
▁ihtar	-11390
▁ihtiz	-11391
▁ikmal	-11392
▁ilahî	-11393
▁iltim	-11394
▁ilâhî	-11395
▁ilâve	-11396
▁inadı	-11397
▁infil	-11398
▁iskem	-11399
▁ismim	-11400
▁iyili	-11401
▁izdiv	-11402
▁izhar	-11403
▁izini	-11404
▁içini	-11405
▁içmiş	-11406
▁içtik	-11407
▁işler	-11408
▁işlet	-11409
▁işten	-11410
▁kabak	-11411
▁kabuk	-11412
▁kadım	-11413
▁kadır	-11414
▁kaide	-11415
▁kapak	-11416
▁kapar	-11417
▁karlı	-11418
▁katlı	-11419
▁kaydı	-11420
▁kayın	-11421
▁kaçar	-11422
▁kefen	-11423
▁kelle	-11424
▁kiral	-11425
▁kolun	-11426
▁kontr	-11427
▁koyul	-11428
▁kulüp	-11429
▁kumlu	-11430
▁kurtu	-11431
▁kâtip	-11432
▁kâğıt	-11433
▁kıllı	-11434
▁kılıf	-11435
▁kılın	-11436
▁kırar	-11437
▁kırdı	-11438
▁kıyas	-11439
▁layık	-11440
▁lağım	-11441
▁leyâl	-11442
▁leziz	-11443
▁leğen	-11444
▁maddi	-11445
▁maden	-11446
▁mahlû	-11447
▁makul	-11448
▁mantı	-11449
▁mazer	-11450
▁melek	-11451
▁melik	-11452
▁meram	-11453
▁meyil	-11454
▁meşru	-11455
▁murad	-11456
▁musik	-11457
▁muzır	-11458
▁mütec	-11459
▁müter	-11460
▁müydü	-11461
▁mıyım	-11462
▁nahif	-11463
▁nakış	-11464
▁neftî	-11465
▁nesil	-11466
▁netic	-11467
▁nisan	-11468
▁ocağa	-11469
▁olmam	-11470
▁olmas	-11471
▁organ	-11472
▁otağa	-11473
▁otele	-11474
▁oyunu	-11475
▁parav	-11476
▁pişir	-11477
▁planı	-11478
▁rapor	-11479
▁rekat	-11480
▁rezil	-11481
▁ruhum	-11482
▁sakat	-11483
▁sanır	-11484
▁saptı	-11485
▁satın	-11486
▁satıp	-11487
▁savuş	-11488
▁saçık	-11489
▁sedef	-11490
▁sefir	-11491
▁selâm	-11492
▁serçe	-11493
▁sesin	-11494
▁sesli	-11495
▁sevap	-11496
▁sevda	-11497
▁sezer	-11498
▁sildi	-11499
▁sofra	-11500
▁sokul	-11501
▁soran	-11502
▁suyun	-11503
▁sönen	-11504
▁söner	-11505
▁sözün	-11506
▁sürme	-11507
▁süvar	-11508
▁süzül	-11509
▁sınır	-11510
▁tabir	-11511
▁takır	-11512
▁tatil	-11513
▁taştı	-11514
▁taşıy	-11515
▁tekam	-11516
▁tekke	-11517
▁tuzla	-11518
▁tüken	-11519
▁tüylü	-11520
▁tımar	-11521
▁umman	-11522
▁uzağa	-11523
▁vehim	-11524
▁verme	-11525
▁visal	-11526
▁vurul	-11527
▁vücud	-11528
▁yakan	-11529
▁yaman	-11530
▁yapma	-11531
▁yazar	-11532
▁yazın	-11533
▁yedin	-11534
▁yeise	-11535
▁yerin	-11536
▁yerle	-11537
▁yeter	-11538
▁yeşer	-11539
▁yiğit	-11540
▁yosun	-11541
▁yüzlü	-11542
▁yıkam	-11543
▁yıkat	-11544
▁zahir	-11545
▁zeval	-11546
▁zevke	-11547
▁ziyaf	-11548
▁Âsıme	-11549
▁Çarşı	-11550
▁Çağır	-11551
▁Çocuğ	-11552
▁Çıkan	-11553
▁Öbürü	-11554
▁Öksüz	-11555
▁çalan	-11556
▁çalgı	-11557
▁çarık	-11558
▁çeker	-11559
▁çıkış	-11560
▁çırak	-11561
▁önden	-11562
▁öpmek	-11563
▁ümerâ	-11564
▁ütülü	-11565
▁İnkâr	-11566
▁İzzet	-11567
▁İçine	-11568
▁İçtim	-11569
▁Şarap	-11570
▁Şaşal	-11571
▁Şemsi	-11572
▁Şöyle	-11573
▁şehri	-11574
▁şeyim	-11575
▁şiiri	-11576
▁şilte	-11577
▁şırıl	-11578
Emanete	-11579
Osmanlı	-11580
addenin	-11581
afranga	-11582
alığını	-11583
amazdım	-11584
aretten	-11585
asarrıf	-11586
baharda	-11587
besiyle	-11588
cağızın	-11589
damıyla	-11590
divenin	-11591
diyoruz	-11592
dukları	-11593
eceğimi	-11594
ekeledi	-11595
elenmiş	-11596
elmilel	-11597
esizlik	-11598
ilikten	-11599
iyetsiz	-11600
lacağım	-11601
larımda	-11602
larınla	-11603
larıydı	-11604
laşıyor	-11605
lemişti	-11606
liğinde	-11607
luğunun	-11608
madılar	-11609
meliydi	-11610
olunmuş	-11611
retleri	-11612
santrik	-11613
timetre	-11614
tiyordu	-11615
uluğuna	-11616
urlardı	-11617
uşturdu	-11618
ümüzden	-11619
ğimizin	-11620
ıyanlar	-11621
▁Aklıma	-11622
▁Aklına	-11623
▁Allaha	-11624
▁Azizim	-11625
▁Açılan	-11626
▁Ağalar	-11627
▁Babama	-11628
▁Babana	-11629
▁Bayağı	-11630
▁Beyazı	-11631
▁Cennet	-11632
▁Diğeri	-11633
▁Dükkan	-11634
▁Dükkân	-11635
▁Ermeni	-11636
▁Etrafı	-11637
▁Fransa	-11638
▁Gittim	-11639
▁Gurbet	-11640
▁Hamama	-11641
▁Haykır	-11642
▁Hayvan	-11643
▁Heyhat	-11644
▁Huysuz	-11645
▁Kafası	-11646
▁Kalbim	-11647
▁Kandil	-11648
▁Kapıda	-11649
▁Kapısı	-11650
▁Kaybol	-11651
▁Kaşağı	-11652
▁Kenara	-11653
▁Kitabı	-11654
▁Korkma	-11655
▁Köşede	-11656
▁Kızlar	-11657
▁Lafımı	-11658
▁Maziyi	-11659
▁Mecbur	-11660
▁Mevlit	-11661
▁Meçhul	-11662
▁Müphem	-11663
▁Nefret	-11664
▁Nermin	-11665
▁Okudum	-11666
▁Olduğu	-11667
▁Parmak	-11668
▁Pierre	-11669
▁Rahman	-11670
▁Razlık	-11671
▁Rüzgar	-11672
▁Sahibi	-11673
▁Seksen	-11674
▁Semlin	-11675
▁Sermay	-11676
▁Sesler	-11677
▁Titrek	-11678
▁Toygun	-11679
▁Tüccar	-11680
▁Uzakta	-11681
▁Yorgun	-11682
▁Yoğurt	-11683
▁Yüreği	-11684
▁abanoz	-11685
▁adımda	-11686
▁ahengi	-11687
▁ahlâkî	-11688
▁ahlâkı	-11689
▁aksini	-11690
▁aktris	-11691
▁akıbet	-11692
▁altüst	-11693
▁altını	-11694
▁alındı	-11695
▁alırdı	-11696
▁arayan	-11697
▁arzusu	-11698
▁asayiş	-11699
▁asırda	-11700
▁atarak	-11701
▁atarım	-11702
▁avluya	-11703
▁avukat	-11704
▁ayaklı	-11705
▁aynalı	-11706
▁açınca	-11707
▁açıyor	-11708
▁ağabey	-11709
▁ağacın	-11710
▁aşkını	-11711
▁babamı	-11712
▁bahane	-11713
▁baharı	-11714
▁bağırt	-11715
▁başsız	-11716
▁bedbah	-11717
▁beride	-11718
▁besler	-11719
▁beşlik	-11720
▁bildik	-11721
▁bildir	-11722
▁billûr	-11723
▁binayı	-11724
▁binmek	-11725
▁bitmez	-11726
▁boynuz	-11727
▁boyunb	-11728
▁bozdum	-11729
▁bozmam	-11730
▁bozsun	-11731
▁boşalt	-11732
▁boşuna	-11733
▁buldur	-11734
▁candan	-11735
▁canına	-11736
▁cemedi	-11737
▁damarı	-11738
▁daskal	-11739
▁delili	-11740
▁demeye	-11741
▁dereye	-11742
▁deriyi	-11743
▁diline	-11744
▁dilini	-11745
▁dilsiz	-11746
▁dindar	-11747
▁doğdun	-11748
▁doğmuş	-11749
▁durdum	-11750
▁durmam	-11751
▁duvara	-11752
▁döktür	-11753
▁döndür	-11754
▁düzgün	-11755
▁ejderh	-11756
▁elinin	-11757
▁elmayı	-11758
▁esiyor	-11759
▁evimiz	-11760
▁evladı	-11761
▁eziyet	-11762
▁eğerek	-11763
▁eşeğin	-11764
▁eşkıya	-11765
▁ferâce	-11766
▁fikrim	-11767
▁fırlat	-11768
▁gaşyol	-11769
▁geceye	-11770
▁gelmek	-11771
▁gerdûn	-11772
▁getirt	-11773
▁geçici	-11774
▁geçtim	-11775
▁girift	-11776
▁girsin	-11777
▁gökten	-11778
▁görsem	-11779
▁gözler	-11780
▁gözüme	-11781
▁güldür	-11782
▁günahı	-11783
▁gününü	-11784
▁hapset	-11785
▁haseki	-11786
▁havlam	-11787
▁hayale	-11788
▁hazine	-11789
▁haşyet	-11790
▁heyhat	-11791
▁hissiz	-11792
▁hodbin	-11793
▁hoşlan	-11794
▁husûle	-11795
▁huysuz	-11796
▁ikimiz	-11797
▁ikindi	-11798
▁iptidâ	-11799
▁ismimi	-11800
▁istikb	-11801
▁itiraf	-11802
▁içmeye	-11803
▁içtimâ	-11804
▁işleri	-11805
▁iştahı	-11806
▁kafamı	-11807
▁kafile	-11808
▁kaleme	-11809
▁kanadı	-11810
▁kansız	-11811
▁kartal	-11812
▁karımı	-11813
▁kaside	-11814
▁katili	-11815
▁kazara	-11816
▁kaşağı	-11817
▁kederi	-11818
▁kerata	-11819
▁kesile	-11820
▁kestim	-11821
▁kiracı	-11822
▁kişnem	-11823
▁kokulu	-11824
▁koluna	-11825
▁konmuş	-11826
▁korktu	-11827
▁korsan	-11828
▁koymak	-11829
▁kuruşa	-11830
▁kuruşu	-11831
▁kuyruk	-11832
▁köpeğe	-11833
▁köpeği	-11834
▁köyden	-11835
▁köyler	-11836
▁köyünü	-11837
▁köşeye	-11838
▁köşkte	-11839
▁külahı	-11840
▁kılıcı	-11841
▁kırmız	-11842
▁kıtlık	-11843
▁laflar	-11844
▁laftan	-11845
▁lafına	-11846
▁lenger	-11847
▁lokant	-11848
▁lâhutî	-11849
▁macera	-11850
▁mahrem	-11851
▁makbul	-11852
▁marazî	-11853
▁maskar	-11854
▁mazlum	-11855
▁mağlûp	-11856
▁medeni	-11857
▁mehtap	-11858
▁mekkâr	-11859
▁mekteb	-11860
▁merakı	-11861
▁mevcut	-11862
▁mevsim	-11863
▁mucize	-11864
▁muydum	-11865
▁mâbede	-11866
▁mânâsı	-11867
▁mücrim	-11868
▁müfrit	-11869
▁müsaad	-11870
▁müsâvî	-11871
▁mütalâ	-11872
▁müşfik	-11873
▁müşter	-11874
▁namdâr	-11875
▁namert	-11876
▁nefese	-11877
▁neslin	-11878
▁nisbet	-11879
▁numara	-11880
▁odamız	-11881
▁okuyup	-11882
▁olanın	-11883
▁olunuz	-11884
▁olurum	-11885
▁oluver	-11886
▁omzunu	-11887
▁pancur	-11888
▁papazı	-11889
▁paraya	-11890
▁patlam	-11891
▁pazara	-11892
▁pirinç	-11893
▁piyade	-11894
▁prense	-11895
▁propag	-11896
▁rengin	-11897
▁riayet	-11898
▁rüyada	-11899
▁sahile	-11900
▁saklay	-11901
▁salona	-11902
▁saraya	-11903
▁sarsan	-11904
▁sarstı	-11905
▁sarsın	-11906
▁sattım	-11907
▁satırı	-11908
▁senede	-11909
▁seneye	-11910
▁sensin	-11911
▁serser	-11912
▁sertti	-11913
▁sevmek	-11914
▁sevmez	-11915
▁silkti	-11916
▁sipere	-11917
▁solgun	-11918
▁soluna	-11919
▁sorguç	-11920
▁suları	-11921
▁sönmüş	-11922
▁sözden	-11923
▁sükûtu	-11924
▁sürüsü	-11925
▁sıktım	-11926
▁sıvalı	-11927
▁tabaka	-11928
▁tarihi	-11929
▁tariht	-11930
▁tartış	-11931
▁tatsız	-11932
▁tavanı	-11933
▁tavuğu	-11934
▁tavşan	-11935
▁tayyar	-11936
▁taştan	-11937
▁tebcil	-11938
▁tedavi	-11939
▁tembih	-11940
▁tepesi	-11941
▁tepeye	-11942
▁terenn	-11943
▁teşekk	-11944
▁titrek	-11945
▁tutsak	-11946
▁tümsek	-11947
▁tılsım	-11948
▁unutul	-11949
▁uzamış	-11950
▁uzayan	-11951
▁uğruna	-11952
▁vaktim	-11953
▁valisi	-11954
▁vazife	-11955
▁verdin	-11956
▁virane	-11957
▁vurmak	-11958
▁yakmış	-11959
▁yalçın	-11960
▁yanmaz	-11961
▁yanmış	-11962
▁yatmak	-11963
▁yatmış	-11964
▁yaylım	-11965
▁yazmış	-11966
▁yaşını	-11967
▁yegane	-11968
▁yegâne	-11969
▁yelpaz	-11970
▁yerini	-11971
▁yerken	-11972
▁yetmez	-11973
▁yuları	-11974
▁yünden	-11975
▁yüzbin	-11976
▁yüzsüz	-11977
▁zamanı	-11978
▁zambak	-11979
▁zâbiti	-11980
▁Çocuğu	-11981
▁Öpmeye	-11982
▁Öğleye	-11983
▁Üzerin	-11984
▁çakmak	-11985
▁çaktır	-11986
▁çakşır	-11987
▁çapraz	-11988
▁çarpar	-11989
▁çoktan	-11990
▁çıkart	-11991
▁öfkesi	-11992
▁ölümün	-11993
▁ölünce	-11994
▁öpünüz	-11995
▁ötüyor	-11996
▁üstünü	-11997
▁İkimiz	-11998
▁İsmini	-11999
▁Şartım	-12000
▁şahane	-12001
▁şangır	-12002
▁şehzad	-12003
▁şiirdi	-12004
▁şoseye	-12005
▁şurada	-12006
▁şüphem	-12007
abilecek	-12008
acığının	-12009
adıkları	-12010
amadılar	-12011
amadınız	-12012
amayınca	-12013
anlardan	-12014
anımızın	-12015
ayacaktı	-12016
diyorlar	-12017
dülillah	-12018
eceğimiz	-12019
eklerini	-12020
emediğim	-12021
fiyesini	-12022
lediğini	-12023
lerinize	-12024
leşmişti	-12025
leştiler	-12026
malarına	-12027
mamıştım	-12028
mamıştın	-12029
masınlar	-12030
mazlardı	-12031
mediğini	-12032
meseydin	-12033
mezsiniz	-12034
miyorlar	-12035
mışsınız	-12036
olunacak	-12037
tırdılar	-12038
zımnında	-12039
üldüğünü	-12040
ıklarını	-12041
ılmasını	-12042
ımızdaki	-12043
ırtıları	-12044
▁Aksaray	-12045
▁Allahın	-12046
▁Anladım	-12047
▁Anladın	-12048
▁Atasözü	-12049
▁Atından	-12050
▁Ağladım	-12051
▁Ağzında	-12052
▁Aşağıya	-12053
▁Bilakis	-12054
▁Bingazi	-12055
▁Bombayı	-12056
▁Bugünkü	-12057
▁Bunları	-12058
▁Cezayir	-12059
▁Cinayet	-12060
▁Deminki	-12061
▁Denizin	-12062
▁Eseoğlu	-12063
▁Etrafta	-12064
▁Felaket	-12065
▁Fermanı	-12066
▁Havuzun	-12067
▁Hayatın	-12068
▁Herodot	-12069
▁Hükümet	-12070
▁Kalktım	-12071
▁Karaman	-12072
▁Karşıda	-12073
▁Katiyen	-12074
▁Kederli	-12075
▁Koşarak	-12076
▁Köyünün	-12077
▁Kümesin	-12078
▁Kılıçla	-12079
▁Kıraçin	-12080
▁Kızardı	-12081
▁Malkara	-12082
▁Merhaba	-12083
▁Nargile	-12084
▁Nasihat	-12085
▁Nuruşeb	-12086
▁Ortalık	-12087
▁Sanduka	-12088
▁Sapsarı	-12089
▁Selânik	-12090
▁Serezli	-12091
▁Sırplar	-12092
▁Sırtına	-12093
▁Terbiye	-12094
▁Tuttuğu	-12095
▁Unutmak	-12096
▁Yabancı	-12097
▁Yatağın	-12098
▁Yaşasın	-12099
▁Yeniden	-12100
▁Yürüdüm	-12101
▁Zamanın	-12102
▁affeder	-12103
▁aileler	-12104
▁akşamın	-12105
▁aldığım	-12106
▁alnında	-12107
▁alırlar	-12108
▁alışkın	-12109
▁anlamış	-12110
▁anlaşıl	-12111
▁arabayı	-12112
▁asılmış	-12113
▁ateşler	-12114
▁ateşsiz	-12115
▁atmıştı	-12116
▁atılmış	-12117
▁ayrılan	-12118
▁açmadan	-12119
▁açtılar	-12120
▁ağlayan	-12121
▁ağrıyor	-12122
▁ağızdan	-12123
▁bacadan	-12124
▁bahadır	-12125
▁bakacak	-12126
▁baktığı	-12127
▁bastığı	-12128
▁bayramı	-12129
▁bayrağı	-12130
▁başımda	-12131
▁beriden	-12132
▁bilirdi	-12133
▁bitiren	-12134
▁bozmaya	-12135
▁bozuktu	-12136
▁bulalım	-12137
▁bulduğu	-12138
▁bâhusus	-12139
▁büyüttü	-12140
▁büyüyen	-12141
▁camekân	-12142
▁camlara	-12143
▁canavar	-12144
▁civarda	-12145
▁cübbeli	-12146
▁daldığı	-12147
▁dalıyor	-12148
▁dayadım	-12149
▁dayayan	-12150
▁debdebe	-12151
▁delalet	-12152
▁denecek	-12153
▁dereler	-12154
▁değiliz	-12155
▁dikerek	-12156
▁dilenci	-12157
▁dillere	-12158
▁doktora	-12159
▁dolabın	-12160
▁donanma	-12161
▁doğruya	-12162
▁doğurdu	-12163
▁dumanlı	-12164
▁duvarın	-12165
▁duyarak	-12166
▁duyardı	-12167
▁duygusu	-12168
▁duyuldu	-12169
▁dönmeye	-12170
▁dükkânı	-12171
▁düğmeyi	-12172
▁düşmana	-12173
▁düştüğü	-12174
▁dışarda	-12175
▁dışarıs	-12176
▁edemeye	-12177
▁ederdik	-12178
▁efendum	-12179
▁erkence	-12180
▁erkeğin	-12181
▁eserini	-12182
▁eteğini	-12183
▁etmeyen	-12184
▁ettiren	-12185
▁ettirir	-12186
▁ettiğin	-12187
▁evlendi	-12188
▁evlerde	-12189
▁ezilmiş	-12190
▁eğilmiş	-12191
▁fakirdi	-12192
▁fedakâr	-12193
▁felâket	-12194
▁fikrini	-12195
▁geminin	-12196
▁getirir	-12197
▁geziyor	-12198
▁geçiren	-12199
▁gidemez	-12200
▁giderdi	-12201
▁giderse	-12202
▁girmeye	-12203
▁gitmedi	-12204
▁gölgesi	-12205
▁görelim	-12206
▁göreyim	-12207
▁görürüm	-12208
▁haberin	-12209
▁hainler	-12210
▁halının	-12211
▁hamlede	-12212
▁hanımla	-12213
▁hanımın	-12214
▁harpten	-12215
▁havadan	-12216
▁havuzlu	-12217
▁hayatta	-12218
▁hayatım	-12219
▁hazırız	-12220
▁hendese	-12221
▁hikmeti	-12222
▁hâtırat	-12223
▁hücumda	-12224
▁ihtilal	-12225
▁iktidar	-12226
▁imtiyaz	-12227
▁inandır	-12228
▁indiler	-12229
▁inkılâb	-12230
▁inmişti	-12231
▁ipekten	-12232
▁isterdi	-12233
▁istical	-12234
▁içeride	-12235
▁işitmiş	-12236
▁kabaran	-12237
▁kakmalı	-12238
▁kalbine	-12239
▁kaleden	-12240
▁kalırsa	-12241
▁kalıyor	-12242
▁kanarya	-12243
▁kanatlı	-12244
▁kapladı	-12245
▁karakol	-12246
▁karnını	-12247
▁katında	-12248
▁kayalık	-12249
▁kazanan	-12250
▁kaçmaya	-12251
▁kaçırdı	-12252
▁kaçıyor	-12253
▁kendime	-12254
▁keseriz	-12255
▁kesilen	-12256
▁kesiyor	-12257
▁kestiği	-12258
▁kişilik	-12259
▁kişiydi	-12260
▁kolunda	-12261
▁korkusu	-12262
▁koşuyor	-12263
▁kubbeyi	-12264
▁kumpany	-12265
▁kuvvete	-12266
▁köprüyü	-12267
▁köyleri	-12268
▁köşkünü	-12269
▁küçücük	-12270
▁kılavuz	-12271
▁kılıyor	-12272
▁kırıldı	-12273
▁kısmını	-12274
▁kıymeti	-12275
▁kızaran	-12276
▁kızıydı	-12277
▁levhası	-12278
▁liberal	-12279
▁lisanın	-12280
▁maiyeti	-12281
▁marpucu	-12282
▁meziyet	-12283
▁muallâk	-12284
▁müebbet	-12285
▁müesses	-12286
▁nazarla	-12287
▁nutkunu	-12288
▁odasını	-12289
▁okşadım	-12290
▁okşayan	-12291
▁olurdum	-12292
▁olursam	-12293
▁omuzunu	-12294
▁ordumuz	-12295
▁oturmak	-12296
▁oturttu	-12297
▁oynayan	-12298
▁oğlunun	-12299
▁palanga	-12300
▁paradok	-12301
▁paralık	-12302
▁paranın	-12303
▁parçası	-12304
▁peygamb	-12305
▁pitores	-12306
▁program	-12307
▁rahattı	-12308
▁reddedi	-12309
▁refakat	-12310
▁rengine	-12311
▁ruhları	-12312
▁ruhumun	-12313
▁ruhumuz	-12314
▁rüzgârı	-12315
▁sabâvet	-12316
▁sancağı	-12317
▁sanduka	-12318
▁savatlı	-12319
▁sedasız	-12320
▁selamet	-12321
▁semerli	-12322
▁seneler	-12323
▁severim	-12324
▁sevindi	-12325
▁silahlı	-12326
▁siperde	-12327
▁siperin	-12328
▁sizinle	-12329
▁sofrada	-12330
▁sofraya	-12331
▁sokağın	-12332
▁susuyor	-12333
▁sönüyor	-12334
▁sürecek	-12335
▁sıcaktı	-12336
▁sıkarak	-12337
▁sıkıyor	-12338
▁sımsıkı	-12339
▁taaccüp	-12340
▁taassub	-12341
▁taassup	-12342
▁tahtını	-12343
▁tanımak	-12344
▁teferru	-12345
▁tehalük	-12346
▁teklifi	-12347
▁telefon	-12348
▁teminat	-12349
▁tepenin	-12350
▁terakki	-12351
▁tramvay	-12352
▁tutamaz	-12353
▁tutuldu	-12354
▁tuvalet	-12355
▁tükürük	-12356
▁ucundan	-12357
▁ulviyet	-12358
▁unutmaz	-12359
▁uykudan	-12360
▁uyuşmuş	-12361
▁uçuruma	-12362
▁vaktini	-12363
▁vapurla	-12364
▁velvele	-12365
▁verildi	-12366
▁verirse	-12367
▁vuruldu	-12368
▁vuruştu	-12369
▁vücuttu	-12370
▁yadigâr	-12371
▁yakarak	-12372
▁yakışır	-12373
▁yanımda	-12374
▁yapamaz	-12375
▁yapardı	-12376
▁yaparsa	-12377
▁yatalım	-12378
▁yattığı	-12379
▁yatırdı	-12380
▁yazmaya	-12381
▁yazıyor	-12382
▁yaşadık	-12383
▁yaşları	-12384
▁yememiş	-12385
▁yeşilli	-12386
▁yiğidim	-12387
▁yokladı	-12388
▁yokuşun	-12389
▁yollara	-12390
▁yolunun	-12391
▁yoğurdu	-12392
▁yürümek	-12393
▁zevcemi	-12394
▁zevkini	-12395
▁ziyafet	-12396
▁Çakmağı	-12397
▁Ömrümde	-12398
▁çalılar	-12399
▁çarşafı	-12400
▁çarşıya	-12401
▁çehreli	-12402
▁çekemez	-12403
▁çekilir	-12404
▁çeviren	-12405
▁çevirir	-12406
▁çocuktu	-12407
▁çıkacağ	-12408
▁çıkamaz	-12409
▁çıkarak	-12410
▁ömrümde	-12411
▁örsünün	-12412
▁ümidini	-12413
▁İnsanın	-12414
▁Şaşırdı	-12415
▁Şehirde	-12416
▁şairane	-12417
▁şehidin	-12418
▁şehâdet	-12419
▁şeklini	-12420
▁şişiyor	-12421
▁şosenin	-12422
▁şüphesi	-12423
▁şımarık	-12424
acaklardı	-12425
acılardan	-12426
amayacağı	-12427
amışlardı	-12428
duklarını	-12429
eliğinden	-12430
lerinizle	-12431
luklarına	-12432
sızlığına	-12433
▁Aramızda	-12434
▁Avazları	-12435
▁Ayağının	-12436
▁Ağzından	-12437
▁Bahtiyar	-12438
▁Büyükada	-12439
▁Darılmam	-12440
▁Dikkatli	-12441
▁Diyordum	-12442
▁Dizlerim	-12443
▁Doğrudan	-12444
▁Edebiyat	-12445
▁Ellerimi	-12446
▁Hayırdır	-12447
▁Herhalde	-12448
▁Hiddetle	-12449
▁Jandarma	-12450
▁Kahraman	-12451
▁Karanfil	-12452
▁Kardeşin	-12453
▁Kasabaya	-12454
▁Kaşağıyı	-12455
▁Kilisede	-12456
▁Kulağına	-12457
▁Kuvvetli	-12458
▁Köşedeki	-12459
▁Maymunum	-12460
▁Maşallah	-12461
▁Ortadaki	-12462
▁Oturduğu	-12463
▁Saçlarım	-12464
▁Servinur	-12465
▁Seslendi	-12466
▁Silahtar	-12467
▁Suratını	-12468
▁Vaktiyle	-12469
▁Yüzlerce	-12470
▁adamıyım	-12471
▁adresini	-12472
▁aklımdan	-12473
▁akşamdan	-12474
▁alaturka	-12475
▁aldatmış	-12476
▁aleyhine	-12477
▁alınacak	-12478
▁anlamaya	-12479
▁anlatmak	-12480
▁annesine	-12481
▁apartman	-12482
▁aralıktı	-12483
▁aramızda	-12484
▁arzuları	-12485
▁askerine	-12486
▁askerlik	-12487
▁attığını	-12488
▁ayağının	-12489
▁ayrılmış	-12490
▁açıyordu	-12491
▁ağlarken	-12492
▁ağırlığı	-12493
▁babasını	-12494
▁badanalı	-12495
▁baktıkça	-12496
▁bayraklı	-12497
▁bazıları	-12498
▁belasını	-12499
▁benzerdi	-12500
▁beygirin	-12501
▁bildiğin	-12502
▁bilmezdi	-12503
▁birikmiş	-12504
▁birisini	-12505
▁bitmişti	-12506
▁buldurdu	-12507
▁bulursan	-12508
▁büyüdüğü	-12509
▁büzülmüş	-12510
▁bırakmam	-12511
▁bırakmış	-12512
▁bıraktım	-12513
▁bıyıklar	-12514
▁canlandı	-12515
▁celladın	-12516
▁cinayeti	-12517
▁dakikada	-12518
▁dalların	-12519
▁davasını	-12520
▁dayanmış	-12521
▁dağılmış	-12522
▁denizden	-12523
▁dersiniz	-12524
▁devletin	-12525
▁değilsin	-12526
▁dikilmiş	-12527
▁dikmişti	-12528
▁diplomat	-12529
▁dolandır	-12530
▁doğarken	-12531
▁durmuştu	-12532
▁duydukça	-12533
▁duymayan	-12534
▁duymuştu	-12535
▁düzeltti	-12536
▁düşmanla	-12537
▁düştükçe	-12538
▁düşünmez	-12539
▁edenlere	-12540
▁edilecek	-12541
▁eflâtunî	-12542
▁ekmeğini	-12543
▁ellerimi	-12544
▁ensesine	-12545
▁esasları	-12546
▁etekleri	-12547
▁etmekten	-12548
▁etmektir	-12549
▁evlenmiş	-12550
▁fakirler	-12551
▁falakaya	-12552
▁fermanın	-12553
▁fiyatını	-12554
▁gelirler	-12555
▁gelmezse	-12556
▁gelmiyor	-12557
▁gerisine	-12558
▁geçerler	-12559
▁geçmesin	-12560
▁giderler	-12561
▁gidersin	-12562
▁giymişti	-12563
▁gospodin	-12564
▁gömdürdü	-12565
▁gönülden	-12566
▁görülmüş	-12567
▁görünmek	-12568
▁gösterir	-12569
▁göğsünün	-12570
▁gürültüs	-12571
▁güvercin	-12572
▁haberini	-12573
▁hasretle	-12574
▁hatırası	-12575
▁hayattan	-12576
▁hayatına	-12577
▁haykırış	-12578
▁hazırdır	-12579
▁hediyeyi	-12580
▁hepimizi	-12581
▁hepsinin	-12582
▁heyecanı	-12583
▁hududunu	-12584
▁hâdileri	-12585
▁hâtırası	-12586
▁ihtiyarı	-12587
▁ihtiyâri	-12588
▁imdadına	-12589
▁imkânsız	-12590
▁intikamı	-12591
▁iskarpin	-12592
▁istediği	-12593
▁istersin	-12594
▁istikbal	-12595
▁istiklâl	-12596
▁işaretle	-12597
▁işitmeye	-12598
▁işlemeye	-12599
▁kabarmış	-12600
▁kadınını	-12601
▁kaldıran	-12602
▁kalesine	-12603
▁kalkacak	-12604
▁kalkmadı	-12605
▁kalpaklı	-12606
▁kandilin	-12607
▁kanepede	-12608
▁kapanmış	-12609
▁kapağını	-12610
▁kaplayan	-12611
▁kararmış	-12612
▁kararını	-12613
▁karşıdan	-12614
▁kaybetti	-12615
▁kaymakam	-12616
▁kazandık	-12617
▁kelimeyi	-12618
▁kesesini	-12619
▁kimseyle	-12620
▁kirpikli	-12621
▁kocasını	-12622
▁kokusunu	-12623
▁komşular	-12624
▁konulmuş	-12625
▁konuşmak	-12626
▁korkarım	-12627
▁koynunda	-12628
▁kuledeki	-12629
▁kuleleri	-12630
▁kurmuştu	-12631
▁kurşunla	-12632
▁kuşağını	-12633
▁köprünün	-12634
▁küfürbaz	-12635
▁kımıldam	-12636
▁kırlarda	-12637
▁kızlarla	-12638
▁lacivert	-12639
▁lisanını	-12640
▁martılar	-12641
▁mecidiye	-12642
▁mektebin	-12643
▁mektubun	-12644
▁memurlar	-12645
▁mendille	-12646
▁meraktan	-12647
▁meseleyi	-12648
▁mesuttuk	-12649
▁mesuttur	-12650
▁mezarlar	-12651
▁meşhurdu	-12652
▁minderin	-12653
▁muavenet	-12654
▁mufassal	-12655
▁muktedir	-12656
▁mukâbele	-12657
▁musallat	-12658
▁mutfakta	-12659
▁muztarip	-12660
▁mühendis	-12661
▁mülevves	-12662
▁münevver	-12663
▁müstehzi	-12664
▁mütevazi	-12665
▁müthişti	-12666
▁müşterek	-12667
▁namusunu	-12668
▁okudukça	-12669
▁okumakla	-12670
▁olamazdı	-12671
▁olmuştum	-12672
▁oluncaya	-12673
▁olunuyor	-12674
▁omuzunda	-12675
▁ordusunu	-12676
▁parasını	-12677
▁parlardı	-12678
▁patlamış	-12679
▁pehlivan	-12680
▁pembeleş	-12681
▁perdeler	-12682
▁pervasız	-12683
▁pireleri	-12684
▁reisleri	-12685
▁resimler	-12686
▁rüzgârın	-12687
▁sakalına	-12688
▁saklardı	-12689
▁salladım	-12690
▁saltanat	-12691
▁sarkarak	-12692
▁sarsarak	-12693
▁sarsıldı	-12694
▁saçların	-12695
▁sebebini	-12696
▁sefaleti	-12697
▁serzeniş	-12698
▁seversen	-12699
▁sinemaya	-12700
▁soyduğum	-12701
▁suratına	-12702
▁susmuyor	-12703
▁susturdu	-12704
▁sönmüştü	-12705
▁söyledik	-12706
▁söyleyin	-12707
▁sızıları	-12708
▁tabasbus	-12709
▁tafsilat	-12710
▁tahassüs	-12711
▁tahtadan	-12712
▁tahtalar	-12713
▁tahtında	-12714
▁tamamlay	-12715
▁taraftar	-12716
▁tarhları	-12717
▁tasavvur	-12718
▁tefevvuk	-12719
▁tekerlek	-12720
▁temizlik	-12721
▁tepeleri	-12722
▁teşekkül	-12723
▁titreten	-12724
▁toplayıp	-12725
▁unutuldu	-12726
▁uyanıktı	-12727
▁uyanırdı	-12728
▁uyumamış	-12729
▁vermeyen	-12730
▁vesselam	-12731
▁vücutlar	-12732
▁yaklaşan	-12733
▁yakmayan	-12734
▁yanımıza	-12735
▁yaparken	-12736
▁yapmıyor	-12737
▁yaptılar	-12738
▁yapıştır	-12739
▁yatarken	-12740
▁yaşarlar	-12741
▁yediğini	-12742
▁yelesini	-12743
▁yemeğimi	-12744
▁yolcular	-12745
▁yollarda	-12746
▁yorgundu	-12747
▁yıllarca	-12748
▁zannetti	-12749
▁zenginin	-12750
▁zevcemin	-12751
▁Çıkarken	-12752
▁çalışmak	-12753
▁çarpıyor	-12754
▁çağırttı	-12755
▁çelikten	-12756
▁çocukken	-12757
▁çırpınan	-12758
▁öldürdün	-12759
▁öldürmüş	-12760
▁öldürücü	-12761
▁ölüyorum	-12762
▁öpüyordu	-12763
▁İlerledi	-12764
▁İstediği	-12765
▁İstersen	-12766
▁şezlonga	-12767
abilecekti	-12768
aklarından	-12769
emeyeceğim	-12770
lamalarına	-12771
lerindendi	-12772
malarından	-12773
mayacağını	-12774
olunuyordu	-12775
ırılçıplak	-12776
▁Akrabalar	-12777
▁Anlamadım	-12778
▁Ağlayarak	-12779
▁Devletini	-12780
▁Dişlerini	-12781
▁Dudakları	-12782
▁Düşünüyor	-12783
▁Geceleyin	-12784
▁Gözlerime	-12785
▁Gülüyordu	-12786
▁Hususiyle	-12787
▁Kaşlarını	-12788
▁Kendileri	-12789
▁Kocasının	-12790
▁Komitalar	-12791
▁Saçlarını	-12792
▁Semendire	-12793
▁Sipâhîler	-12794
▁Takunyalı	-12795
▁Tamamıyla	-12796
▁Tamamıyle	-12797
▁Torununun	-12798
▁Türklerle	-12799
▁Yaralılar	-12800
▁Zavallıya	-12801
▁Zavallıyı	-12802
▁acıkmıştı	-12803
▁adamcağız	-12804
▁adamların	-12805
▁ahalisini	-12806
▁akislerle	-12807
▁aksediyor	-12808
▁alacağını	-12809
▁alafranga	-12810
▁alamadığı	-12811
▁almıyordu	-12812
▁amcasının	-12813
▁anladınız	-12814
▁anlamamış	-12815
▁anlattığı	-12816
▁anlatıyor	-12817
▁anlıyorum	-12818
▁arıyormuş	-12819
▁ayrılınca	-12820
▁açılmıştı	-12821
▁ağacından	-12822
▁babacığım	-12823
▁bahsetmek	-12824
▁bakılırsa	-12825
▁bayraklar	-12826
▁bayramını	-12827
▁bağlanmış	-12828
▁bağırmaya	-12829
▁bağırıyor	-12830
▁başüstüne	-12831
▁bedenlere	-12832
▁beklemedi	-12833
▁beklerler	-12834
▁beyazlığı	-12835
▁beyefendi	-12836
▁bildiğini	-12837
▁bitirince	-12838
▁bulunuyor	-12839
▁buluyorum	-12840
▁böcekleri	-12841
▁bölükbaşı	-12842
▁bülbüller	-12843
▁bırakacak	-12844
▁bıyıkları	-12845
▁cahilliği	-12846
▁civarında	-12847
▁dalgınlık	-12848
▁damlaları	-12849
▁daskaliçe	-12850
▁dağıtıyor	-12851
▁dediğimiz	-12852
▁defterdar	-12853
▁dehşetini	-12854
▁deldiğini	-12855
▁dikkatini	-12856
▁dimağımda	-12857
▁dimağında	-12858
▁dinlenmek	-12859
▁direkleri	-12860
▁diyemezdi	-12861
▁duyuluyor	-12862
▁düşmanlar	-12863
▁düşündüğü	-12864
▁edecekler	-12865
▁edeceğimi	-12866
▁edeceğini	-12867
▁efendiler	-12868
▁efendimin	-12869
▁elbiseler	-12870
▁ellerinde	-12871
▁etmeyerek	-12872
▁eğlenceli	-12873
▁eğlencesi	-12874
▁geliyorum	-12875
▁gelmiştim	-12876
▁geziniyor	-12877
▁geçirdiği	-12878
▁geçirirdi	-12879
▁gidiyoruz	-12880
▁gurbetten	-12881
▁gururunun	-12882
▁gömleğini	-12883
▁göremiyor	-12884
▁görünmeye	-12885
▁görüyorum	-12886
▁götürelim	-12887
▁götürüyor	-12888
▁gözlerime	-12889
▁gülüşerek	-12890
▁gürültülü	-12891
▁hararetli	-12892
▁havlamaya	-12893
▁hayalimde	-12894
▁hayallere	-12895
▁hayalleri	-12896
▁hayatımız	-12897
▁hayatında	-12898
▁hayvanlığ	-12899
▁herkesten	-12900
▁hikâyeler	-12901
▁hizasında	-12902
▁hiçbirini	-12903
▁inleyerek	-12904
▁istediler	-12905
▁istediğim	-12906
▁istediğin	-12907
▁isteyecek	-12908
▁işitmemiş	-12909
▁kadınının	-12910
▁kaidesini	-12911
▁kaldırdım	-12912
▁kaldığını	-12913
▁kalkanlar	-12914
▁kalkansız	-12915
▁kalkmıştı	-12916
▁kalktılar	-12917
▁kamburunu	-12918
▁kanatları	-12919
▁kapanıyor	-12920
▁karanlığa	-12921
▁karanlığı	-12922
▁kardeşimi	-12923
▁kazandığı	-12924
▁kaşıyarak	-12925
▁kendimize	-12926
▁kesilecek	-12927
▁kesilince	-12928
▁kilometre	-12929
▁kondüktör	-12930
▁konferans	-12931
▁korkmuyor	-12932
▁koynundan	-12933
▁kulakları	-12934
▁kurtulmak	-12935
▁kuvvetsiz	-12936
▁köprüsünü	-12937
▁küstahlık	-12938
▁küçülüyor	-12939
▁kımıldadı	-12940
▁mahallesi	-12941
▁mahluklar	-12942
▁mahvetmek	-12943
▁maneviyat	-12944
▁manzaraya	-12945
▁manzarayı	-12946
▁marpucunu	-12947
▁medresede	-12948
▁mektepten	-12949
▁mektuplaş	-12950
▁memleketi	-12951
▁muhitinde	-12952
▁muvafakat	-12953
▁mânâsıyla	-12954
▁müteahhit	-12955
▁mızrağını	-12956
▁nazarları	-12957
▁neferlere	-12958
▁ninesinin	-12959
▁okuyorlar	-12960
▁olacaktır	-12961
▁olmayarak	-12962
▁omuzundan	-12963
▁ordusunda	-12964
▁ordusunun	-12965
▁ormanlara	-12966
▁oturdular	-12967
▁oynatarak	-12968
▁paltosunu	-12969
▁parmağını	-12970
▁perdesini	-12971
▁poturunun	-12972
▁profilini	-12973
▁rastgeldi	-12974
▁saadetini	-12975
▁saadetler	-12976
▁sabahları	-12977
▁samimiyet	-12978
▁sararıyor	-12979
▁savurarak	-12980
▁saçlarıma	-12981
▁saçlarımı	-12982
▁serbestti	-12983
▁seviyordu	-12984
▁soracağım	-12985
▁söylemesi	-12986
▁sürünerek	-12987
▁sıkıyorum	-12988
▁sırasıyla	-12989
▁sırtından	-12990
▁sıçramaya	-12991
▁tahsilini	-12992
▁tahtelbah	-12993
▁takımları	-12994
▁tanıdığım	-12995
▁tarafları	-12996
▁tepiniyor	-12997
▁terbiyesi	-12998
▁terketmiş	-12999
▁titremeye	-13000
▁torununun	-13001
▁uyandırdı	-13002
▁uydurarak	-13003
▁uğramıştı	-13004
▁uğraşacak	-13005
▁varlığına	-13006
▁varıncaya	-13007
▁varıyordu	-13008
▁vazgeçtim	-13009
▁veriyorum	-13010
▁yaklaşmış	-13011
▁yaklaştım	-13012
▁yapraklar	-13013
▁yapıyordu	-13014
▁yayılıyor	-13015
▁yazdığını	-13016
▁yağmurdan	-13017
▁yerleştir	-13018
▁yetişiyor	-13019
▁yetmişbeş	-13020
▁yiyecekti	-13021
▁yiyeceğim	-13022
▁yolcuları	-13023
▁yoldaşlar	-13024
▁yürüyerek	-13025
▁yıkılacak	-13026
▁zamanları	-13027
▁zannettim	-13028
▁zavallıyı	-13029
▁zâbitlere	-13030
▁Çirkinler	-13031
▁Çocukları	-13032
▁çalıştığı	-13033
▁çalışıyor	-13034
▁çehresini	-13035
▁çevirerek	-13036
▁çiftliğin	-13037
▁çocuklara	-13038
▁çocuğuyla	-13039
▁çıktığını	-13040
▁öleceğine	-13041
▁üzerimize	-13042
▁üşüştüler	-13043
▁İhtiyarın	-13044
▁İngiltere	-13045
▁İçlerinde	-13046
▁şairlerin	-13047
▁şapkasını	-13048
▁şaşıyordu	-13049
amayacaksın	-13050
hamdülillah	-13051
ıldıklarını	-13052
▁Arnavutlar	-13053
▁Biliyorsun	-13054
▁Bizimkiler	-13055
▁Dayanamadı	-13056
▁Dizdarbaşı	-13057
▁Gerinirken	-13058
▁Görüyorsun	-13059
▁Haydarpaşa	-13060
▁Hüsameddin	-13061
▁Karanlığın	-13062
▁Konuşurken	-13063
▁Kurbağalar	-13064
▁Osmanlılık	-13065
▁Palanganın	-13066
▁Sadrazamın	-13067
▁Susuyorduk	-13068
▁Yaklaşınca	-13069
▁Yunanistan	-13070
▁adamlarını	-13071
▁akislerini	-13072
▁alkışlayan	-13073
▁anlatırken	-13074
▁anlayamadı	-13075
▁antiseptik	-13076
▁aydınlıktı	-13077
▁ayrılmayan	-13078
▁bakmayarak	-13079
▁bakışından	-13080
▁başlarında	-13081
▁başlayacak	-13082
▁başlıyordu	-13083
▁bembeyazdı	-13084
▁benzemeyen	-13085
▁beylerbeyi	-13086
▁bilinmeyen	-13087
▁bilirlerdi	-13088
▁bilmediğin	-13089
▁birleşince	-13090
▁bulunduğum	-13091
▁bulunmuştu	-13092
▁buruşturdu	-13093
▁dalıyordum	-13094
▁damlıyordu	-13095
▁darbesiyle	-13096
▁davetliler	-13097
▁değişmişti	-13098
▁değiştirdi	-13099
▁dinleniyor	-13100
▁dinleyerek	-13101
▁diyecekler	-13102
▁dokundurdu	-13103
▁doldurulan	-13104
▁duruyorduk	-13105
▁dönüyormuş	-13106
▁dükkânında	-13107
▁düşmanları	-13108
▁düşünmeden	-13109
▁düşünmüyor	-13110
▁edebilirdi	-13111
▁ensesinden	-13112
▁esirlerden	-13113
▁etmektedir	-13114
▁etmişlerdi	-13115
▁feylesofun	-13116
▁gazetelere	-13117
▁geldiğimiz	-13118
▁gelenlerin	-13119
▁gelmeyecek	-13120
▁gelmiyordu	-13121
▁getirmişti	-13122
▁geçeceğini	-13123
▁geçirdiler	-13124
▁geçirmişti	-13125
▁geçtiğimiz	-13126
▁gidiyorsun	-13127
▁görünmeden	-13128
▁görüyorsun	-13129
▁götürmüştü	-13130
▁gözlerimin	-13131
▁gülüyordum	-13132
▁gürültüden	-13133
▁güzelliğin	-13134
▁hademeleri	-13135
▁hakikatini	-13136
▁hakikatten	-13137
▁hakkındaki	-13138
▁hatırlamak	-13139
▁hayalinden	-13140
▁hayatımızı	-13141
▁haykırıyor	-13142
▁hazretleri	-13143
▁hikâyesine	-13144
▁hıyanetlik	-13145
▁hıçkırmaya	-13146
▁ilerisinde	-13147
▁imkansızdı	-13148
▁istemediği	-13149
▁istiyordum	-13150
▁istiyorlar	-13151
▁istiyormuş	-13152
▁içmişlerdi	-13153
▁kahverengi	-13154
▁kalacaktın	-13155
▁kalacağını	-13156
▁kaplamıştı	-13157
▁karşılıklı	-13158
▁kelimeleri	-13159
▁kenarından	-13160
▁kilitlendi	-13161
▁kollarının	-13162
▁koltuğunda	-13163
▁konuştular	-13164
▁korkuyorum	-13165
▁kucağından	-13166
▁kullarının	-13167
▁kumandalar	-13168
▁kumandanla	-13169
▁kurbanlığa	-13170
▁kurtarmaya	-13171
▁kuvvetimle	-13172
▁kuvvetinde	-13173
▁mektepteki	-13174
▁melâikeler	-13175
▁memleketin	-13176
▁memlekette	-13177
▁memuriyeti	-13178
▁merakından	-13179
▁meydanının	-13180
▁minareleri	-13181
▁muhabbetle	-13182
▁muhacirlik	-13183
▁mutasarrıf	-13184
▁mânâlarını	-13185
▁müteharrik	-13186
▁müteşekkil	-13187
▁nakaratını	-13188
▁nazarlarla	-13189
▁olduğundan	-13190
▁olmadığına	-13191
▁olmazsanız	-13192
▁ormanların	-13193
▁oturttular	-13194
▁oğullarına	-13195
▁parmakları	-13196
▁parçalayan	-13197
▁rahlelerde	-13198
▁romanlarda	-13199
▁saadetleri	-13200
▁sadrazamın	-13201
▁sallanarak	-13202
▁sandalyeyi	-13203
▁sandukanın	-13204
▁santimetre	-13205
▁sarsılıyor	-13206
▁sessizliği	-13207
▁soracaktım	-13208
▁susuyorduk	-13209
▁söylediğim	-13210
▁söylemedim	-13211
▁söylemiyor	-13212
▁söyleyiniz	-13213
▁sızılarını	-13214
▁tanımadığı	-13215
▁tiyatrolar	-13216
▁toplanıyor	-13217
▁unutmuştum	-13218
▁uzaklardan	-13219
▁uzanıyordu	-13220
▁uğraşırken	-13221
▁verirlerdi	-13222
▁vermemişti	-13223
▁veterinere	-13224
▁vicdanının	-13225
▁yaklaşınca	-13226
▁yaklaşıyor	-13227
▁yalvarıyor	-13228
▁yalınkılıç	-13229
▁yapılmıştı	-13230
▁yaşındaydı	-13231
▁yetişmişti	-13232
▁yordamıyla	-13233
▁zamanlarda	-13234
▁zannederek	-13235
▁zayıflıyor	-13236
▁Üzerindeki	-13237
▁çadırların	-13238
▁çalışırlar	-13239
▁çevirdiler	-13240
▁çocukların	-13241
▁çıkarmadım	-13242
▁çıkmıyordu	-13243
▁önlerinden	-13244
▁öğrenemedi	-13245
▁üzerlerine	-13246
▁ıstıraplar	-13247
▁Şimendifer	-13248
▁Arkadaşları	-13249
▁Efendisinin	-13250
▁Jandarmalar	-13251
▁Sevincinden	-13252
▁Uzatmayayım	-13253
▁adamlarının	-13254
▁ahlâksızlığ	-13255
▁anlamadılar	-13256
▁anlatacağım	-13257
▁anlatıyordu	-13258
▁anneciğimin	-13259
▁arkadaşları	-13260
▁arkadaşımdı	-13261
▁artırıyordu	-13262
▁arıyorlardı	-13263
▁basamakları	-13264
▁bayraklarla	-13265
▁beklediğini	-13266
▁bekliyordum	-13267
▁bekliyorlar	-13268
▁bilmiyorsun	-13269
▁birbirimize	-13270
▁bitirdikten	-13271
▁boğulacaktı	-13272
▁bulamamıştı	-13273
▁bulamayınca	-13274
▁buselerimle	-13275
▁bıyıklarına	-13276
▁cephaneliği	-13277
▁derinlerden	-13278
▁değiştirmek	-13279
▁dudaklarıma	-13280
▁düşmanların	-13281
▁edebiyattan	-13282
▁esvaplarını	-13283
▁etrafımızda	-13284
▁ettirecekti	-13285
▁fedakarlığı	-13286
▁fikirlerini	-13287
▁fısıltıları	-13288
▁geziniyordu	-13289
▁geçiriyordu	-13290
▁gitmişlerdi	-13291
▁görmemiştim	-13292
▁gösterdiler	-13293
▁gösterdiğim	-13294
▁hareketleri	-13295
▁hasretmişti	-13296
▁hastalandım	-13297
▁hatırlamaya	-13298
▁heyecanları	-13299
▁heyecanıyla	-13300
▁hiddetinden	-13301
▁ihtiyacımız	-13302
▁istemeyesin	-13303
▁kabarıyordu	-13304
▁kabuslarını	-13305
▁kahramanlık	-13306
▁kalçalarına	-13307
▁kanatlarını	-13308
▁kararıyordu	-13309
▁karşılarına	-13310
▁katılıyordu	-13311
▁kazaskerler	-13312
▁kenarındaki	-13313
▁kesilmesini	-13314
▁kulaklarını	-13315
▁kunduraları	-13316
▁kurbağalara	-13317
▁kurtulmuştu	-13318
▁köprüsünden	-13319
▁kımıldamadı	-13320
▁kızarıyordu	-13321
▁mandolinini	-13322
▁merhametsiz	-13323
▁muhafızlara	-13324
▁muhitimizde	-13325
▁naralarıyla	-13326
▁odalarından	-13327
▁oluyorsunuz	-13328
▁oturduğumuz	-13329
▁oğuşturarak	-13330
▁parçalarını	-13331
▁sevincinden	-13332
▁siperlerine	-13333
▁söylüyorsun	-13334
▁sıkılıyordu	-13335
▁taraflarını	-13336
▁teşekkürler	-13337
▁titrediğini	-13338
▁tüfeklerini	-13339
▁uzaklaşıyor	-13340
▁vakitkinden	-13341
▁vazifesiydi	-13342
▁velinimetim	-13343
▁yaklaştırdı	-13344
▁yaklaşırken	-13345
▁yanlarından	-13346
▁yapabilirdi	-13347
▁çaktırmadan	-13348
▁çalışıyorum	-13349
▁çağırdığını	-13350
▁çevirdiğini	-13351
▁çıkarıyordu	-13352
▁şövalyeleri	-13353
Estağfirullah	-13354
emeyeceksiniz	-13355
▁............	-13356
▁Dirseklerini	-13357
▁Muallimlerin	-13358
▁Osmanlıların	-13359
▁aralarındaki	-13360
▁ayıramıyordu	-13361
▁başlayacaktı	-13362
▁benzemiyordu	-13363
▁bulunmadığım	-13364
▁buruşturarak	-13365
▁bırakmayacak	-13366
▁bırakmıyordu	-13367
▁dudaklarının	-13368
▁düşünmemişti	-13369
▁fikirlerimiz	-13370
▁getireceksin	-13371
▁gölgelerinde	-13372
▁gölgeleriyle	-13373
▁göstereceğim	-13374
▁gülümsüyordu	-13375
▁güzelliğinin	-13376
▁hikâyelerini	-13377
▁ihtiyarlamış	-13378
▁jandarmalara	-13379
▁karanlıklara	-13380
▁kelebeklerin	-13381
▁koşuşuyorlar	-13382
▁kumandanları	-13383
▁kumandanının	-13384
▁merdivenleri	-13385
▁nöbetçilerin	-13386
▁olacaklarını	-13387
▁otluyorlardı	-13388
▁parlatıyordu	-13389
▁parçalayacak	-13390
▁pencerelerin	-13391
▁sallanıyordu	-13392
▁seccadesinin	-13393
▁soruyorlardı	-13394
▁unutamıyorum	-13395
▁veterinerler	-13396
▁yalvarıyordu	-13397
▁yaptıklarını	-13398
▁yükseklerden	-13399
▁çıkıyorlardı	-13400
▁aptallaşmıştı	-13401
▁beylerbeyleri	-13402
▁dirsekleriyle	-13403
▁dudaklarından	-13404
▁hareketlerini	-13405
▁ihtiyarlıktan	-13406
▁inanamıyordum	-13407
▁koyulaşıyordu	-13408
▁menkıbelerini	-13409
▁olabileceğini	-13410
▁söyleyeceksin	-13411
▁söylüyorlardı	-13412
▁tekrarlayarak	-13413
▁tekrarlıyordu	-13414
▁uyandırıyordu	-13415
▁ziyâdeleşiyor	-13416
▁Hemşerilerinin	-13417
▁anlattıklarını	-13418
▁bulamıyorlardı	-13419
▁hemşerilerinin	-13420
▁ilerliyorlardı	-13421
▁karıştırıyordu	-13422
▁konuşuyorlardı	-13423
▁mutaassıpların	-13424
▁söyleyemiyordu	-13425
▁hükümdarlarının	-13426
▁kardeşlerimizin	-13427
".	-13428
,"	-13429
.)	-13430
0-	-13431
1-	-13432
20	-13433
4-	-13434
5-	-13435
6-	-13436
8-	-13437
?'	-13438
?’	-13439
Av	-13440
Eş	-13441
Ha	-13442
Kö	-13443
Or	-13444
Ve	-13445
Yâ	-13446
bö	-13447
câ	-13448
cî	-13449
ee	-13450
he	-13451
kî	-13452
kö	-13453
mn	-13454
mû	-13455
nm	-13456
oo	-13457
pa	-13458
sk	-13459
to	-13460
ug	-13461
uu	-13462
vu	-13463
âi	-13464
âî	-13465
îz	-13466
ûy	-13467
İç	-13468
ıh	-13469
şa	-13470
şı	-13471
..,	-13472
Ali	-13473
Bil	-13474
Bul	-13475
Bun	-13476
Cer	-13477
Doğ	-13478
Geç	-13479
Gün	-13480
Hak	-13481
Hiç	-13482
Hur	-13483
Kar	-13484
Kir	-13485
Par	-13486
Sal	-13487
Siz	-13488
Tev	-13489
Tüh	-13490
Vah	-13491
akı	-13492
arm	-13493
arî	-13494
asm	-13495
ava	-13496
aşe	-13497
bab	-13498
bay	-13499
bid	-13500
bîl	-13501
bün	-13502
cev	-13503
cez	-13504
cim	-13505
civ	-13506
cın	-13507
das	-13508
daî	-13509
dağ	-13510
deb	-13511
ded	-13512
dem	-13513
dis	-13514
diş	-13515
düs	-13516
ebî	-13517
ehh	-13518
ehr	-13519
elz	-13520
erg	-13521
evi	-13522
fen	-13523
fez	-13524
fin	-13525
fis	-13526
fte	-13527
gân	-13528
gûn	-13529
had	-13530
haf	-13531
hak	-13532
hel	-13533
het	-13534
hut	-13535
ila	-13536
irc	-13537
isa	-13538
iyy	-13539
içi	-13540
kab	-13541
kav	-13542
kip	-13543
kiy	-13544
kuş	-13545
küf	-13546
küm	-13547
kıy	-13548
lic	-13549
luy	-13550
luç	-13551
lâs	-13552
lûd	-13553
meç	-13554
mok	-13555
mum	-13556
mân	-13557
mül	-13558
nit	-13559
niz	-13560
nuz	-13561
onk	-13562
ons	-13563
onu	-13564
our	-13565
oğu	-13566
pal	-13567
pek	-13568
pih	-13569
raj	-13570
rek	-13571
ruh	-13572
rus	-13573
ruç	-13574
rîb	-13575
sed	-13576
sev	-13577
son	-13578
ste	-13579
sük	-13580
sır	-13581
tek	-13582
tes	-13583
tğı	-13584
tıp	-13585
ura	-13586
usy	-13587
uza	-13588
vak	-13589
vik	-13590
vil	-13591
yah	-13592
yer	-13593
yin	-13594
yus	-13595
yım	-13596
zon	-13597
çık	-13598
île	-13599
îye	-13600
öst	-13601
ûne	-13602
ûse	-13603
üce	-13604
ümb	-13605
ünc	-13606
ürü	-13607
üşü	-13608
İki	-13609
ıht	-13610
ıll	-13611
ıng	-13612
ısf	-13613
ıta	-13614
ığı	-13615
şeh	-13616
▁Aa	-13617
▁Bo	-13618
▁Bö	-13619
▁De	-13620
▁Eb	-13621
▁Ed	-13622
▁Ez	-13623
▁Ga	-13624
▁Go	-13625
▁Hı	-13626
▁Le	-13627
▁Re	-13628
▁Tr	-13629
▁Ul	-13630
▁fâ	-13631
▁kı	-13632
▁lü	-13633
▁uh	-13634
▁vâ	-13635
▁za	-13636
▁zâ	-13637
▁Çö	-13638
▁Ür	-13639
▁âs	-13640
▁âz	-13641
▁üs	-13642
▁İy	-13643
▁ız	-13644
▁ış	-13645
▁Şi	-13646
▁şe	-13647
...’	-13648
Deli	-13649
Fran	-13650
Genç	-13651
Kork	-13652
Seni	-13653
Ulan	-13654
abaç	-13655
abaş	-13656
abya	-13657
adik	-13658
adıl	-13659
afat	-13660
ahab	-13661
ahit	-13662
akaş	-13663
alak	-13664
alle	-13665
alın	-13666
anak	-13667
anla	-13668
anoz	-13669
aran	-13670
arek	-13671
ataş	-13672
atin	-13673
aviz	-13674
ayıs	-13675
aziş	-13676
azır	-13677
ağız	-13678
aşık	-13679
baba	-13680
bede	-13681
cası	-13682
daşı	-13683
deal	-13684
deli	-13685
deti	-13686
deye	-13687
dref	-13688
dını	-13689
ekim	-13690
ekât	-13691
ellü	-13692
ence	-13693
ençe	-13694
eran	-13695
erse	-13696
esap	-13697
esik	-13698
este	-13699
etum	-13700
evez	-13701
eylâ	-13702
ezid	-13703
ganı	-13704
gası	-13705
gini	-13706
guna	-13707
ibir	-13708
ifet	-13709
ifti	-13710
ilim	-13711
ilir	-13712
ilki	-13713
illa	-13714
ilse	-13715
iniş	-13716
ireç	-13717
isik	-13718
isiz	-13719
isse	-13720
isya	-13721
itle	-13722
iver	-13723
iyar	-13724
iyin	-13725
izit	-13726
içer	-13727
işar	-13728
işim	-13729
kası	-13730
kent	-13731
kiye	-13732
lann	-13733
lenm	-13734
lera	-13735
leti	-13736
lini	-13737
mece	-13738
memi	-13739
ndan	-13740
nden	-13741
nebi	-13742
nedi	-13743
neti	-13744
nünü	-13745
ofon	-13746
olos	-13747
onci	-13748
onda	-13749
ozlu	-13750
pete	-13751
radı	-13752
rayı	-13753
reti	-13754
rupa	-13755
sadı	-13756
sali	-13757
sana	-13758
simi	-13759
siye	-13760
size	-13761
sıcı	-13762
tası	-13763
teci	-13764
tini	-13765
ubat	-13766
ukta	-13767
ukut	-13768
ulek	-13769
ulsa	-13770
unla	-13771
unup	-13772
uruz	-13773
uvaz	-13774
vere	-13775
vezz	-13776
yarı	-13777
yası	-13778
yeye	-13779
ymış	-13780
âmil	-13781
âsız	-13782
âtın	-13783
ûşin	-13784
ülli	-13785
ültü	-13786
ümle	-13787
ünun	-13788
üslü	-13789
ütur	-13790
üvel	-13791
üğün	-13792
ğide	-13793
ğunu	-13794
ıyye	-13795
ışıl	-13796
şedi	-13797
şine	-13798
▁Acz	-13799
ecc	-13800
heya	-13801
ibin	-13802
ruğu	-13803
âhlı	-13804
şgar	-13805
▁Alp	-13806
▁Arı	-13807
▁Atı	-13808
▁Ceh	-13809
▁Cih	-13810
▁Dav	-13811
▁Deh	-13812
▁Den	-13813
▁Dim	-13814
▁Döv	-13815
▁Düz	-13816
▁For	-13817
▁Fuk	-13818
▁Gag	-13819
▁Gay	-13820
▁Geb	-13821
▁Gem	-13822
▁Hab	-13823
▁Hil	-13824
▁Hoc	-13825
▁Hıy	-13826
▁Jan	-13827
▁Kad	-13828
▁Kam	-13829
▁Ker	-13830
▁Kop	-13831
▁Kov	-13832
▁Koy	-13833
▁Kus	-13834
▁Kuy	-13835
▁Kuz	-13836
▁Kös	-13837
▁Küç	-13838
▁Kın	-13839
▁Kıy	-13840
▁Lid	-13841
▁Loz	-13842
▁Mef	-13843
▁Mân	-13844
▁Nem	-13845
▁Nev	-13846
▁Nut	-13847
▁Oda	-13848
▁Pan	-13849
▁Paz	-13850
▁Paş	-13851
[...]
